node {
  name: "dense/kernel"
  op: "Const"
  attr {
    key: "dtype"
    value {
      type: DT_FLOAT
    }
  }
  attr {
    key: "value"
    value {
      tensor {
        dtype: DT_FLOAT
        tensor_shape {
          dim {
            size: 2
          }
          dim {
            size: 64
          }
        }
        tensor_content: "\372\237o=\243C\232>6\373\204\276\177?U\276B\252r=\"q:\2762\257x\276\034i\001>\336\007\364\275(G\276\275\177\335\211>`\337n\274\"\3513\275t\220\222\275a\270\371=\2261\r>\215\022\257>35W=L\372T\275FbI>\342\376\375\275)H\202=o\215\267\275\362N\314\275\036\031\231\275Q{!>c!\244\275)U\031=s\215\313\2751f\322;\2145\205\276m\343\311<\240\004c\274\235w\277>\\]y\275\300K\202\275\033\341\204\276L\242\217\276\274\0307>>\262u\276\211\345\315\275vK)\276\257\343\203\2766Gx>\230\343\305\275\310\270C\275\\\321\252>\317\246q>G\356\313\272\347\031D\276\314\273\211\276\277\022\241>\206IP> \266R>b\215\236=fa\255>\352\366\373\275#\026\014>I\201\305\275!0H\276\311\220\003\275PM\363=\355\037\231:\370\326\230>\233\037\224=\305\315[\273Wa\007>\020\335Y>\220\251\200>\357|\207>\220T\301\275W>{\275\341\315\002>\225\377\210\276\3415\225>\036\365\200\275g\304\331=\351\212Y>^\335\235>`\003\221>\217q\336\274\3726\202>e\021\224\276I\235s\276\000\221\376\275\246\320\252>g\347\232>\242\177H\276\373\336\227>\310\017\263\275\265:\301=\022#\356\275\261/\324=8\263\203>\3209\016\2763\250U=0\016p\275\264%U\276X&P>pZ=\275\215\2578>\301\000,>S\370\350;\024r\213>m\r\275=\365F\233>P\262\037\275\"3t\276\230%\013\2751@r\275\257lx\274K\017)\275*\236\270>Y2F\276.\362\213>a\"%\275\031\234w\275\326\363s\276\356\367\247\275\251\033\241\275e\000N>w\332\006\276\'v\340=\306 \031\276%\nn=\230\230\212>\330\356\245>\343\221\227\276"
      }
    }
  }
}
node {
  name: "dense/bias"
  op: "Const"
  attr {
    key: "dtype"
    value {
      type: DT_FLOAT
    }
  }
  attr {
    key: "value"
    value {
      tensor {
        dtype: DT_FLOAT
        tensor_shape {
          dim {
            size: 64
          }
        }
        tensor_content: "\023 Q\267%xj=A\035w\270.\374e\267\006:\272=&;\367<\000\000\000\000\340\262\2657\365U\262=\000\000\000\000\221\3621=\000\000\000\000\255S\201=.g\247\270~\017\025\274g\013t\274r\270\240=\237\001\222=\000\000\000\000\320\010\3136\000\000\000\000\231\007\255=\"\370\3706\000\000\000\000\3565\231=\020c\37156\020\t\271\031\254\024\275h\033\"5N/\322\273\000\000\000\000\323\037\224=\000\000\000\000\002\351\374=k\\y=\000\000\000\000\322r\342\270<\226\337=\230j\350\273\'@\2259\307\266!=\235\275\2427\000\000\000\000<\343\345\265\000\000\000\000i\024q=\366\246\200=\"T|=\344X\303:\000\000\000\000\227\276\004\270\022o\255=\377\322\323<\205\314.\266\236\371y;\357d\266=9RJ\274#\213A\270\220T\034\267\000\000\000\000yR\256=\332\245\355<\314\203\227\272\020\254\273\265"
      }
    }
  }
}
node {
  name: "dense_1/kernel"
  op: "Const"
  attr {
    key: "dtype"
    value {
      type: DT_FLOAT
    }
  }
  attr {
    key: "value"
    value {
      tensor {
        dtype: DT_FLOAT
        tensor_shape {
          dim {
            size: 64
          }
          dim {
            size: 64
          }
        }
        tensor_content: "\307\2112\275\037}#=\205\312\276\275\271\341\247=\223t\325=\0319r\276f(6>c\234\027>\213q,\276\262[\341<Z!\270;\247\310f>\340\221\221\275G\2569>h\347\001>\252:\022\276\310\356\255\274\r\350\020\275\004\026\004\275\354\257V>\363\n?>St\207\275\213\341K\276!\3628>\260G%\276\250\314\232\275\265i9\276C\376\023\276\206\211&\276\023\310\245=\333\367V>_\277\353=b\237\000>0W\370\273\024\231\221\275\300\177\240==\320\217=\333\030\200\275\314\200\234\275Q%\257<\330\335\303\275X\016\206\275\211\'\233\275\336~\020\276\361\215\020\276\253\264\361=\006y\257;\334\005a\276pB_<\231G4\276\361J\322\275DT)\276AN\023>\016S~=\370X\362\274\226~\020>p\255W\274\341s\363=\376\223W>\273p\254\275p\003>>\200\224\000\276\212\203\n>C\310\002>\312\022\204=\022\027J>\367\t\207>K\340\004>*\010\010>\234B\200=\300!\t>\312\232\t;\313j\232<\363\332\326=%\345\032\276=v_\276\215\225\315<\300\201_\276\253\025r>j\344\250=\257m\320\275\323\264\'>\032]\017\276\221\235[>\017\271\022\276Y\330\262\2754gz>\247]Y\276\246:9=8\006\315\275\354\303u>\254\334\237\274#\203\024\276\023\364j\274\314\244^=\004XI>A#\006>\007\310 >\360d\215<\027\277\r<Q\027\232\275\362E+<\351@L>O\213\013\276Um\022>\036\334*>\344\372\243\273\232\004F\276O\"\342=\257\3457\276\217\200\231\275\340b.=\361(\020\276\264}\271\2752\374\001\275\\\336\254\275\361\242\n>\333\306\032\276\376\317\337=y\353\271\273\325-3\276\242w\307=\316|;\276c\344\312\274\360\003\342\275\225\347*>\020^\254\274\232\207h>\304jf\276\002\007s\276\301\031\200\275\031\322\222=De\371\275\244\316I=\336\310\036\275\001B\272\274\021\026\210=\342\333_=\017\220E>\267\257\032>c\241~\276B\014\036\276\035\267,>\005\340\320\275\316\307\352\274Z/\225=\354\036\236\275>p\313\274\252\016\014\275\253\212~\276\253>*\276naA>R\241\205><^\203\275.\237\210=\000\213\341\275\225CC>\247\212\007<\237\325L\275\376=9\274\035\021\030=\313\r\010>:3*>\246uS\276\200\033&>F\272\246<v\323\213=\010Z\005>:[b\276\035y\025>\200x\014=\243\206\014<\302\217m\276K\256\211>A\207;\275\234n3\276\256T\300=M\303g\276\335Z\013=\361V\355\275\267\340\035>\314\356\312\275\340m0\275\006\366\235=\325\263N>1\352\313=\274\235\002>\225\254\'>_q\177=\010V\367\274\226\001\013\275S\330C=\023\334\006=\345-(\276+d\201\276\323\r\007\276\221#\271=\324?9\275\237\233\232=`Q\200=\272N?\276\350h\316\275^\221e>\005\302\211=\267\224B\276\375Y)\276e\0306\276\254\222\371\275\362\034<\276Kh\005:\005dI\276\324\007\270:D\314(>$p\317\275k\030#=zNb>\222\344<\275U\324\004>m\n\321\275\007\375\372\273\324\324\332\275F\272(\276v\026\216=<\tv\276\373G(\276\237T\030=\250\326\223\275\371\255\277\275\353S\223<\247r)\276\326+,\276\022a\007\276\321\275\221\275S&\216\275\345\313z>\355\234\300\275\236\316\353\275\334\237\306\275Q{\266=\027\351\267\275d\317\263\275[(\030>[\322#>\364^\341=\032\370\265\275nI\243\275\023\224G>QM\342\274nr\317=\243^\005\276\246\312\025=u\322\035>\275T\017>\250i\027\276\337\3544>s\231=>W\247\304\275\002\371i>L\335\311=\211\305\322\272/E\324\275\005uR\276\361\223\r=h\361d>\017hT\272\317O\215\275:\030S=p\301\020>\002l+>2\253\306=\245\352{\273\037\000\010\276>\357\316<\242 V>\302\333\260=\204\300i>\003\034\265<TM\244\275\200T}\275\006\351\204=\027\316X\275Q\330\322<\214\342\001>\022\364\254=\037\315*>Do\332\275\304\022\236\275T\343\326\274eXi\275,Z\206>q\231.<j\3326\276\245@\177\275\\z\025>\215B\000>9,K>\260&Q>I\003\231=o\342\032\273\205k\023>\271A\007>\310m\205>v\360\370=\002\377\n>\274\365\t\276\306BQ\275\362\221L>\240m\371=\340\020\351\275\245n\361\275\215\2724>?}\016=\200\303\347\272\310aO=fl\323\275`\nO>\370\300\341=}O$>k\031\276\275%;\026\276\312\247f>t/m\276?\366\224<v-\200\276Q^3>d\254\030=E\201\'\276l\354E>\242a\346\274a!\221\27598\005>\024\003\204=\237\371\314\275\356\236=\276\377#\272<\267\263\020\276?\343\305=\372\266\203>0Q\307\275N\254\334\275u\003\375\274],\201\275\206\371\360=\000\325\204=\3638\233\275\314z\370\275\222\270}\276\362\213\253\275\251T\000>\\(\324=\020\2342=\177\363\255=6\177\022\275z\335:\276\300\177\r\276^\237\313\275l~:=N\\\020\275jq\273=_~\311=\306EK\275+?\021\276v?\021\276\300U=>d\227\234<b\263\346\275\31578=\333uB>\022\274\335=?3\235=\034\021\326=f\315u>\017\243\007\2760\333/\276\0026\005\276h\267\177>\265oR>\270\010\305=\331\2632\276\366(i>C\241\016\274\241\352\027>\267\253n=\240\331\224\275\245\234\002\276\326r\323\275\002E\364=\324A-\276.H\320=\rbO>\3318M\276\374?\\\275\n\274\231\275\200\270\237;\230\311\335<T\251\025=\223\373%>IIB>\2605h\274\263\013\010>\024\316\362\2755\303+>\242?\216=\223\001\">E\244\013\276`\331F\274\340\376\306<0.\021\275L\262\010=$|\003\275\027\374Q>\'\243G>t9C=\2558\306\275\241h.>\'\250Y>br\350=\372\357\243=\341\236&>\344\310\177\275(\034\013\27510\301\275\330\263\033\275K\330@\276\331\\I\276\324\027Y\275\232\224\243=k\240Y>\000^\037\274k\3061\276\250X\276\274\000\213/;\nE\316=\360o\222\275\372\214\367\275\002[\241=Z\333\332\275\340I\343\274\021\375\t>\230\350\324<q.W\276A\246\367\275\327\220\356\275-\027Y\276\"\246\353=\337\216\002>\211\344(>\322D\307=\252\374o\276\013\303\255\275\177\334\376=\247\306\230\273U~6>\317XL=C\332\n\275\244e\340\275V\360\356=\022\013\215\275\340\220\007\276g\007\300\275\222\031\376\275\314\330\317=\300\220\007>\336\256\361<\234}\202=Y@\244\274J\246\237={\350K>\273\256A\276\343\320\035<\213a\227\274\335\006-=\203y\030\2767\014\370\275x\303}\275\372|\273=C\031W\276J%E>\253\014\267\272\232Q\366\275\025\352\221=\335\375\324\273\336l\030\276E\r\310=\004\350\177=\316\333\345=+\340\007>6\322\364\275\245kA>\310\327\214=T\252\222\274x\342z\276\233\306Q\276\273r\234<\237\367\225\276\305wZ\276\003\n0\276A\245\025\276w+?\274\266\311\275\274UC\341\275tp\214<5\033%>O\203 =\253\230\005>\277\250K>\252C\233=\221t\216;p\000Y;H=\355<B\314\330=\357\025\257<\220\222A>Q\302\276=\210\021\323=\327\023\234\275(-\210<9\317\274\275\345\346\223\275\263\306\323<\226A\273\275x\020\356=\001\207\344:p\263L>\n\\c\275+i:>:\351\014>\312d\346\275-\370\213=\340\213\n><_ \276q\3175>\007\314Q=\2411\323<b\035]>x8\211>\274y\310\274\321\"\230\275\311\224\251\274\007,\322\274\360\303a\275Ubp>\264u\021>C\315\003\276\256\201h\276_\315\t>I\336G\275\342\006\216\275R\276\260=\023\001\376=\365\003\r>\321^j\276Y\022\270\275}\266\350\275\317\206\327\273\177@ >N\001\027\275\371\260Q\275Z\016\024>\243\006\310\273\304#@=\243@\034\275\374\205\311\275T\376\301=\253\210\t\276|\212\373=@UB<\240@U>\254\\\025\276\003\002r\275L1\337=\010\037*>\0002o\275\232\025\222<\025.\">\262\357\372=\236\271\221=&_\227=[\346S>`\350\211\273\252r\243=p\021\326\274o6\001>\300\033\357<\367\327B>s\247S>#P\007>es2\276\210\2306\275dl)\276\260\214\033<e\300+\276\262\200\242\275\262\261\361=\323\'\305\2755\0369>(\346(\275\250$\324\274m\037V>se+>\301\022#\276\335\215L\276\231\033]>\2004\317\273\250=\027\276\340\206\212\273GmL\2769\t\321\2752\237I\276\356\302\272=I\271S>R\027C\276\244\270+=\252@\202=\036\271\320\275[oK>\277k->\300\315S\273\220\241F\274\256\014\t\276\024B\023=\264\353/\275\3513\315\2750\325:\276(\266E\275\267z\311\275\216M\025\276\306\373\005\276\243 !>\2723\271\275I\256\356\275\3518\023\276T\334\355\275F\372\337=\300c\273\274%\223;>[\342\353\275,\255\333\275\013\333\032>\234?\213\275\330\345\003\276Z+\267\275\306\376w>\356R\353\272\324\316\016>\237\250D>\223c\006\273\0003\203=\227\214E=\360D3>\321V\333=JO\001\275\221\2501>_9*>\002\323%>\272k\304\274H\032\223\273~\214\224:\000\005\205;\205\273\035>\334\315\311\275\360\2177\2768hp\274\254nP>\230$\237\275\250\030f\275\325\345\n>~\0261\275\352\265\214=P\370,>[\027\377=\177\315\364<\273B\\>r\377,>=\215(>K\250\177\275n/\035>6y\010\276\25100\276\364\264\\=\323\037P>\0245\004=\263\203\\\274\360\275\344=lO`\276\375\2431>,3\247<\345Q\201\275\202L\300=\227\3357\276\305\331<\2768\273\320\275\\G\022=\367\032\373\271\370\254z\275-X\337=N\226\272=\204\321J\275FP\013\275\214\037}>)\007\265\274\031O\022\2754R\376=\231\314N>`\231I\276\234\303P=\334\337u\275g\316\377\275\014>g=\232?R\276\320\024\\<\232\303\322=`\264\031\276\274O>=\217\036\027>3\372G\276\316\322\372=\214: \276\3008\277\274Q\240V>P\020\006\2751L?\276lU_=\241\2213\276@\001\231<\317\210$\276\320\253\234<\370\275\361\2740\353\261\274\316\244K\276w\370\307\275}k\032\276\376\270\310\275\330D\032\276\022|\245\275\204X\377\275\350Yu\275,\243\n=\252k\311\275[\277K>t\350\257\275\203bM>b\316\220\275\023\357\006\276vt\032\276\036\314A\276H\0248\275~\365\370=4\330e=:\032U\276\177\0134\276)\253\013>\006,\330=\350\203\"\275\000/y\272\n\330\350\275\310C\004\276\274o\002\276P\350\256\274 K\033\274\352\027\310={\212(\2768\3563\275\240\016\314;o\273\">\364WO\276V\001\237=\235=Z\276s\001]>\020\222\320<\026\302>\276C`b\276\356}q\275\032#p\275n\316\214\276G\350\030\276)\363\205<f\364\302<V\356T>\312 \245=\337~6>#\325=>\272\222\367<\257\030\\=\231\242\005\276\201U\351;\360\240O<\330_\347\274\254\250\306\275\275|h\275\303\356u=*\375u>\376\262N=C\021\346\275\352X+>\273\007~\276!\335Q\276\213\t\001\276\204\341s\276\204\033|>_\332\005>z@\034>_\333\245=\200\353\271;>\261\207<?5\365=\224#)=\341d<\276v\346\t\276\227\270b=\231H\217>\313\342i>\220\306R\275:\276[>\237e\205>rR$>\000s\031:\321\344J>\035\273\376\275\235\274\003\276\014\343\302\275\374~i<\311\371$\276\371\353\247<\360\2300<\260|\316=!\303\215\275\303\2750>\341G&>\247>\274\274[:8>s\220\225\274\026\030&\276\245\260q=F\370T=4\372\036\276\276\310n\275dWh=\205\251q\275\211\261\315=\206\367\362=\344AY\275\007D\305\275\236\260|>\357\363,\276\030\340\370<\302I\315<\366\252\036>\003\0201\276\035\3525\276\244lp\275\327DL\276\262\322\255<*,\206=\304/\201\274\023\242\217\275<\024\267=\374\323z\275\271\362\030\276v\363\n\276X<\232\275Zq,\276\"\305\221\275\256LG\275\342VV\276\360\246U\276\237G5\276\222\334\327=u;a>\306\211\303\275\'nH>,\034\020>\214\212\324\275M\355\004>\277\204\200>l\261\032\275@\364\250\275\227V\021>\341X,\275\037\276a= @T\276C3\023>\302y\362=n\324<>;p3>\230\031\260=\275$E\276\\\254\027>\276*<\276\000\227\215\275\032\0253\275o\360\202\275$\203\220\274\216F\243=\337z\t\273\260:\276\2747I/\276No\237\275\002~\340=%\240J\2758?\r\276t<0>\325\026\352\275\262\000T\276\341\345\352\275\250$\323<\234~\250=\256\244s>\031B\034\276l\301e\276\352\327\'\276\222\265\343;\332\241\256\275\252\265Y\276\004\332\301\275\017\227\203<F&P\275\212\034u=\223\210\034\276\301\323\247\275\232\025R>\027\256\310=1\324\341=\261\343]\276R\221\325=\300\325\250=\214\272\r\275\372A#\276\312\315)\275\277\236\257=\356$j=\305\364p<\244\223\277<\025r2\276\212\335\237=\013\341\367=n\305\027=\365\307o\275\036\234\270=\216z\307\275\3523\003\276[lA>\2510g\276\034@\304\275\231r=\276l\007X>\227{\227=\017\353\243=\207u\000\276\312\211;\276\207\0238\276\315\3120>\020\247\300<\267\276\232=\020\377\373\273-O>>\016;8\276\014\2541\275\220%;\276W^(>\221\376;\276\217\233O>\312\337\305\2740=R>C\277`>%\346W\276\365+m=\224\325\316\274\334\3559\276\n\343\'\276\204M\003\276g\326H>\362\317&>\006\211\346\275\3158\272=$+E\276\256q-\276T7s=\215R7>bP\024>?\243~=&\024\211\275\330\262\034\276Q\370\346\274\355<C>\3232\262;u\026\376=#\3726>v\245\006\276\227w\002\275+\311{=\304\306%>\335\355\202\275\340| >r~\001=\024\251\253\275\260\036?>\363\326O>M\203$\276\366W/\276\021\rn>\2031D\275t\214C>\313/a\276\346n\211=\373\202\357\275p\336\204\276\242\231P\276\266\003\034\276\334\337\035>P\003!>~s\275\275,\t\014=\232\301U>\320\035\177<Yv\n\276\356\245\340\275\373\325\267\274\206\374\212=\334\220\034=\264\323.>\257o\032>\363\024G\275\020\234A\276>\240\270\275]>.>\3700&>\262\307q>\021\221F=\250\205\003\2764X\275\275%\003\261<x\200\226=\231@\375=\211@1\276^\341r<\266,\014>\027\\\351=$\367\'\276\3003\275=)\213v>\226-\305\275 \204\007\276\353]\307\275\365*q=\t\262\203=\024\344\243=\316\350\017\276?gC\274\'\376*>\023\207\200>v\0305>\010l\233\274\246\353T>\034\005\205>\326\254\252\275\340\323\222\275\245`i=\231\204i>\0345\026>J\272\315<Yc.\276?\274\020\276U\332B\275\241]\r>vI\335;\340\317\261=c\237\346\275\323\232.=\356\241?>\212S\035=\325\014\303=\232\302\002\276\231\031v>\2700\350\275\253\364\232\275\355Z\022>QV\201>\374\265\021\275R\251\333\275,_V=\320.\332\274\270=H\276\307\331]>\203\216\202\275x;\022\276\354[p\275\353\217*>\313|\254\275\361x\243<)\270i=pbB\276*\021\004<\"N\273\275j\324\220=\323\014%>\006\n\370<\325\026\004>f%3=\352\215g>\2252\\>T\2225>\022\307\357\275vc\027\2765\371k>t\251\033>\334\346\026=\317\335\304=\240\224\334\274n\306\374=\265$\376\275y\3014\275\324]|=1\010\335\274[,\002>\202-)\276\31519>\363\316\r>u2\202\275\312\031m>\\\356\202;\300\352\306\275)\016\230<\346\334\217<\313hN\276\305\007\265\275c\342\320\275\212]P\275\221\351A\276\231\227\350\275f\\\223=\006\253\207\275\031/T=\314*\n>/\004I>A\337\r\275>\236\255=g#I\274\0275`>Q\267g<\370\023\001\276w7O<`jH<\326\203\321=\304Z3\275\270\026L>\207\252\027>\t\240\202;g\314,>4g\030\276z\214V=\016\277w=\244\013\024\276PdM\274}\216?>Y-\313\275l`w=@\'\025\276\013s\025>:\212;\276\260)L<\014Tf=\330\276\311< \346\'\274\231\002\036\276&w\304=\362F\310=a\370N\276|lZ\276\000M2\275\341}T>\373\201%>\207r\030\276\327\0378>\272\337\312=<7:=\327I:>\242*\346=2\305\317\275\262\'\344=\235\360*>X\243\320\274\273d\312\275^\2141\276\262\306\004\276W\275\340\275\250F\r\276u\212\376\275\000NG\273\230\264\206\2748\203\241\2750\035\246<\223\250(>~\204H\276L\344X=\335\274$>\000*\242\272\\_l\275f\313\r\276\345Q+>XfU\276\006X\351\275[jJ>\354C<\276\270*y\275\367\312\017>c\376*>\354\272\006\275\202o\311=\225\3012>\301Y*>\032\020\260\275\305RT>&q\231=\357n\001>\310\273\007\276Sj\004>M\357\t\276\200\357\033>\273\223\010\276\3524=\275l\370\262\275\215K\244=02$>\356\306\272\275\315\300\004>\325~\034\276\276\337)>\305T\022\276\257\271\034<I\034W<\206WB><\230\010>\n\025\343=]\023?>\227\017\210\276\336@\"\276\335\203g<\'\255\207\276\3008\330=pN\'\276\256\357d=\222\201\204>\355uQ\275\0335>>\257\215>>\244\023\200>pG\005\276\021\306\272\275\201\340\212\275\275\264j\276\236\371\236\275\275Sc>\003\244\024>\335+\025\276e\225\204=\370+\032\276\243_\276\275W:\007>\013\025\203\275\322\006\371\275;\354%\276\340\224\002\276\227\371=\275@\325\\<\037\2452\275&8h\274\230U7\275\272*<\276&:_=\276\025\004\276\313\261\221=\3703g\275\250\302\376=\211\211\361\275!a\311\274\256\216M\276\2145\322\275\336\3704\276R\024\200>\350\312\236\275\016j/\276L\214\036=\215\303\'\276\020\213P\275\016a\347=\233\020!\2765`Y>\263\316.\276\226\306\235=\277<\007\276\216\347\312\275\242o\341=\344\031U\276\244\355\030=\316\327\203=\256s#\276$\241Y=\333\031\021>W\336\310\2752\224\341\27580!\275\304s-=\264\006,\276\003\020\031>\300\007\010< \275n\274G\024*>@=P\274\022\t\250=\214@\025\275\272\217\235\275\t\316\032>\272\351\367=\217\rR>\025\3240>\304\356K=X8\370\275\314\352\020\276\251\021M\276\250r\327<\300.Z\274\232#\\\276\316~\233=\333\2702>\"\027\261\275\026\326\216=\266\246\340=\260\311\314\275\'\\K>\367n1\276\277\333Q>\217\003\017>{I\037>z\302\220=t\243\377\275\034\322x=KKH\276U\361S>@\270\326<4\231Q=b\252\203\275N\307\265=$s?\275>\331E>\362?\220=n\304b=\"\371\"\276\332\204B\276\305\306\271:7\200\"\276+UV>\316\335\375\275\214\271\377=\257GP>@\323\321=a|8>\245\227\334\275e\224\360\275d\223\325<\302a\320=\255c\n=8\336U\276\001l\357<\201-\000>\226\003\024>\240\236\201><\351R>W\300a>\004{\t\276\347\013}\275\017\215\311=\261\300R\276\347)\374<5}\225\275\215\256\201\2752\313\025\276\031+Y>\200gO\274\007J\014\276\036V->\030\333d=G\342\347\275\222\265\211=h;5>\204\366>>W\236\346=U\235\216=\311P\325\275\222r\242\275\031\245\374\275\003\331\275;\370>\261\275\206\321s\275T\355\352\273\200\350->\255p\314\275\352\334t\274\2240\032=)\303\241\2753\334\033\276\333\020b\276nq\003>\251\357*>\365\204C\274\001\322\273\275\331\303\242=\231\266L>-\210Z=\207XR\276\330\'\363=\231\221^\276\245\340\322<\246v\025\276s.s=\331\202\207\275=5M\276\251tB\276\204W\006>\303P\277\274\363\233\204=\034\232\013\276\300\270\257\275\2534\273<\203x7\276\260\215R>\244\366i\275\235I\027\276\251:E>\000\225F>\335;1=\347]a>s\333\316\274|\031\277\274\337\236\254=)T\036>\230\033@\276\226\'\030=+L\n=\327\310\217=\356]\005>\311\315\354<\246\330T=\375\353\030\276\313\"k>\337\313\234\274\217\332I\276\030\217\025>\211\337\263<S\353\005>Z\326\342\275\344h\307\275\325O >\220W\036;>\266\217=\354SD\276\210\356\273\274\034@L\276Y\267\030>G\272\200>\274\225 \275\320^:>\210\333\312<\371C\017>\034\347H\276\031E\200\276tQ\030>\325Q,\276\364\r\007>\037\2358>\246\325<>\343\374\253=\330!\345\274F\310\340\275&\304\215=\207@\326\275\300\310\360<\016\260A\276 {\236\274\331K$\276:\037 \276(\025\315\274\370%\302\274\324k\323\275\253\360\022>\001\225Y>\340\327\371;\325\3050\276\255Y\021>\231\030 >\362\277\334=\334\231c\275\256\354\330=\034\300\177=\016\207\371=\322M\244=\024\225\256\275\354K\022=\272\373\302\275:\022\316=\000q\033\2764\372\032=H\301?\276\304Of\275\262\252\210\275\210\236\333\275\314*2\275\340\220\372<w\264\010\276\261\251\">\\\352!\275\212!\013\276\304\240E\275\266<Q\276\272\347\227=%\312[>\006\222]\2764z\302\275X\356\027\275P\252\256<\020\340f\274x(\331\275Y\255\010>2\005\023\276\222+\267=\332V\355\275\260@+\275@A\020\274\350\0025\275\277M\032\276\232\247\320=\334\361.\275\000\260b8\252`Q\276f\244\337=\340l\224<\242\030\264=\003\010\324\275\375\322.>\217z;\276\021\010=>\256\315K\273\260\230\354\275\222\364\220=3\367Y\276\262ZE\276\251(\324\275\300\364\033\276\210\331\001\276\262EI\276\215%f=p\034@=\224\000\326\2739\335\346\275\232\244R\276f\277\340=\354\257L\276&m]<\201\345[\274\311z\303=@49>\275\256\233\274\224B9\276\330\002\241;\250|\373<)\251\023\275\253Xu\276\336\t\033>\317\342\013\2763\253\221\275\336\217\222=\226\210\272=Y\237X=zCQ\276\274~]\275\342\326\177\276\253p\243\275\362s\327\274r}\216>\312n:\275Qn1>o\353\306=o\302\003>x\207e>\350\217\001\276g\264\027\275\355\013\013\275n}\010\276\334\014F\2752\215\t=\000<\201\272\353\323p>\375b\010>\236P\031>\342\366\257<\372\177\366=Gi\324\274 y\020>g\342F>\311\342b\276?\205\217\275\244\336?>\036\233\266=\351N\341=\236\352\354=\326=\324<E\022\230\274Uc\025>\007\030A=\303\346l\275\345\333\023>\342\326l<\226\204\021>\332\2519=v\t:>\177\225t>i\201[>\237U\007\275\254\252\302\275\0240\031\276\340\2723\274J\253\275=\000\2723\276\033\207\034\275\230m\031\276\273n >\245\301\300=\366VF>\377\360\030>\231\266\215\274\004\372\345\275H\312X=\3353\276=p!\027\276\223\201\231=)*\000;n\006\251\274\014\303\250\275\276A\355=\251\224F\274\362\342\201=\2530\242\275\212\202\017\276\324\201\004\276\274b=\275\353\217L=\266,\375\275\323,<\276w\201,>#CP=]\301Q>l\0032\276b\315\367=J_\346=\372\351\331=V\037\236=(\222\212\275@\341\222\275\324\345F\276.\335$\276\203l\">\003\314A>\332\311\264=B4X>i}N\276\324\027u=y\334\200\276\033\213\006=\215\367\317=\r\353H>\n\204\036>\226\211M>g\356@\276\314\341\330=pAK\275\\wi>\300\276\257=_\326\014>=t\021>}1\022\276\362r\352\275\014\rA>8\367\333\275z\346>\276S\361\375=\307\201o\276\3735><3\324Q\275a>\002=\347g\352=\244e\016\275^<\'\275\304XM\275o\341R\275d\363\357=^\310\262<EI\\\276/\2767\275\271MY\276\217\022D>\237\004\341=i\013\274\274\356\220A\276\343U\\\276=\033\314\275\027\213\233=\245Mx\275O\021\014\276W\327m\276\202\275\344<\266P*\275\257\262<=u\204*>|\034[\276\020\274S>\322\212\313\275\275A(>\204l\242=\312\316\033\276,ID>\202\342\360=v\016\242\276\330Z\025=1K@\276p@\r\276]\223%>\373E\302\275\020\255f=0\024H\276\032\010*>\326S\024>\313\317-\275Bt\376\272\311\235 \275O$k>\350\350m>\'\036\010\276S\372K>\3773\350=\031\345\256\275\363\213\026>\027\256\020>\024\270\376\275M3X\275\361\215\022\274\006\221\265=\366,\277\275\005\325O\275\351\023\002>\226).\276\302\245\207\273T\325y=zq#\274\230\327\327\274\214\361\362<\201\0211\275\374\001T=u7\327\275\313\373Q=\337\301\024>%\317\007>J\326\212={I\250\275\247^2\275\020\205\333=\235\303U>\305\255\004>\375\314}\275\310\267h=Wd0\276\204\352\253\275\010\020\031>\310\256\336=6\230\276=\370\330\334;c\334>>Z\026L\276ak.\276@\1779= \022\222\273\254Q\025=\303\237$\276\376\237\350=&\262\357=\276~\025\276R\004-<zc/\276\013`L\276v\211\314=\305\300\001\276-\t3>\233d\323\275S\264\236\275fz\360=\276\263\200\276\360\226\000>\326\211\277=x0\353<\2021 \276\252\315j>\212a#<\310\216E=x\247U>$\264\300=\302\262T\276\214\302\256\275\366\036\352=\036\221D\276^9\025>S\010>>\260\330\361<\305\017\325\275B\202-\276j\371\251\274\344g\207\275\242\023\357=<.\201>}\351\335\275\331\014\256\274Fk\366=\nv\350=\332\354\031\276\365\'\n>\277\273\243=\340\224?=\247E\254=\002B\">\034\007\022\276\303\250n>\343\016\252\275\340\225R<\303\264\031\276\024c\177\2761\347\375\275\016\3347>]\223\255=\225\014\243\275%\3021>h\304\003\2764{\203\274>\274\212=\360Ft\276f\201E<\036\353?>\246M;\276;\340A\276\351\0062\276\231\312\355\274n\035\230\275\014D,>\004\317Y\274\230z\276\274\250:\266\275\367\327\377\275\364\206\027<S\307\212\275\216^\247\275\313P/>\004x\027\276!g\361=<\230,>\236*\322\275\244\213Q\276;V\317=\305c\215=\325\306\350=\252\273\000>\313\300\204\274\360l\301=S\341T>$<\356\274\021\262.\275\224]\235\275\253\342\022>\331\'L>\350\301T<\010\240\005\276l\242\347\275\236s\325=\361z\023>6e\">\206<\037;\251\271D>r\207;\275d*g=2\232z\274A\223\360\275\005-!\276\272\365=\276\\\325\354\275\305\262\260\275\311-\203\275\377\202v=\330\316z\27583\221<\332_\331\274\0251N>Kd=>\276\313)=\020I3\276^nT\276\315&,>\210\3537\276\313\2756>)\231#>\326\342\024>\013\rI\276\332\327\223=T\343I=^C2=~t\016\276\310\321\377\275bw\231=_#i\276\247\026\030>\357`\376\274\301J\300\275\266\016\023\276\375-\256\274\272\223n\276\020\245\340<\241\006!>\014a\037\275&\221\251=\250\333\264\274$%h=\010|\241<\304\212W=\244Fd\275\325E\343\275lC\343\275`\342\020\274\022T\213=\010\021\244\274\303W\001>Zo&\276uU\000>\ne\331\275\215\305\026>>\035\225=%\276#>6\277\251=j\334\371=x|U\276z\346\302=\320\3650\274ItL>>\001O\276\3555]>\204\215q=\320j\337<l\t\205\275o\357,>\'\207\\>\202\252\311\275\2166%\276\264\3115\276\\K\034=6\026\223=\346\036\302=\361@\r>\016\207I\276\300t\036\276t\016\217\275;aP\276\230\021\323\274\330\021\325<\321\025!\276\\{\352\275\000\360L\272\360t\035\275\250\376\374\275\320\335\254\275\360Cz<?\371>>\234\357r\275?\366#>\316D\026\276U.O\276(\253V\276\254gk=~f\257=\235\360)>\302\360\303\275r\252\354\273\367\312a>{\266\307=W\365\005>\361\217\026<P\016\225\275\223*\001>\370\212\013>\365\027\343=\241\007l=\200\251O\275z\252C>\363\342\216=\367T\303;7\027\360\275O\241-\276M*\027>\216Da\276x\n\264\275\257\336\007>U\202j>d\025\t=\206\364I\275\343|\025>\360F\243=W\270\022>\r\017W\275U\262\234\275\247\035\342\275BUa>\243\265\227\275zA1<x\356\032\276\353\0235=\037Rg>\310\212\274<$l&<\277DF=\354\031R=\344y\323<MO\277=\024\202 >\245\037B\276\017NN\275\330\204\">E6\200=w\2522\275\007\254\027>D\247\031=g\230\022>*)T\275\3237\322<j\333\322=\005\356/<\010\277\002\276\034A\227=\375\262\020>\332\214\014\276j\3304\276\363W<>\r\305\203=\221q\'>\307\272\002\276\243\213A>\201o\005>\2247g=\372\367\365=%\020C>b\334\306=\320v\345< \030\013<\264M\017=C\322%>b\305#\276\367\247V>\200\001\030\275)9&\276RH\372=\033\240T\276M\205\001>\234\210\220\275Af4>\240\314\314\274j\344J\2763,A>\337o;>\300r\274\273\367\3540>\016`\266\275\\\206.\275\215T\306\275\226\n\367= \251\356\274\021\340\346\275\340\351\212\275\030\256\222<(\250#\276\255k\310\275\337\236\006\276\363#\023\276\300o\324;\330\2251\275\007_[>\202\362\223=\211\271C>d\347-\276-\224\034>zW*\276\226\271\305=\345\001+\2768\321\245\274B\241\220=X\201\006\276\246V\374\275fUO\276\206<I\276\365\264Z>\016\314\212=\202\244\276=\010\367\205\274\236\320(\276T\330)=\305CE>\264\303\017\275\3431I>T\342\016\276\332/\230=\257\016\t>\007I\325=\257x\r\276(\377%>\300p\310=\002x\352=\257SD<\241s\">\341\177\307=8[i=\240Gg=U\304X\276\023<Y=x\214\202=\0352\352\275\354\261\013>\207P\226<p\260\216>\211h\313\275\214S\022=x\351\016\275\273\026\013\275T!0>\305\273\204\274\365]\214\276\263\356\337\275\004@5>\303\177\223>\231(\277=\007p\007>\264\323t>BTT=\003\356\372\275\260\362\370=\253\201d=\263\315#\276\211\365k=x\342#>\213\237[>0hD\275\356k\206>\032\364x>h\343\377=\034\362\037\275\335\274\373<\302LM>\302\204\214<\302\323\372=\327I\347\275\227\273R>\017Y]>\002\225\221\275\036\3550\276\326\271\010\276\2765\205\275\277\321\000\276w\003\035\276!h\371\275\342\256\323=8\376\322<\223\227o>\342et\275RX\352\275\232\343\237=\370Xa\275\244\357\227>\332\367\351=\334\351\303=\232\223c\276B\r\301=HE\231=\370\231\024>\341_\022;@gx\276\027;\034\276\241\334\210=\261\265p\2751\274\017\275\364D\002\275\272X\034\276\201\377Z\276\234y\265\274\312\010,>\0162\256=\351xO\275\374\241X>\215P\332=a\226G\275\022\233W=\374,\226=@\005b\276\022\363Y\275Z\246\262=\027&?>\372R\310=<\346A\276\344=\311=\002\254\005=\371\263\275=\331\310\032>.,\270=n\347b\275\200t\336\273K>X\276\032j#\276\250\215C\275\342\324T\275F\275:<\200\030Y\275\235\3366\275\252S\254=\311!\321\275\214%\340=\023\254K>\210\234\221\274\020\242\211=rUs>l+_\275|iN\276\264\247\000=Q\317d>\270sT\276w\\a\276\223\002\362\273O*\020>\302\035M\274\320ma\276\276\340\317\275\316\263:\276\264Q|=\225\371\027>\335rU>\013\233=>\367\246<>\r\2309>\000\244\242<\250`\317\275\375FR>\334\030N=<\010\026=TD\t=\324dU\276\345\\\t>\036t\322\275V\314\364=\001P/>$\374N\275R\342\346=\273\200\005>\335z?\276;1M\276\310\255\230\274grU>\3022\253\275\270\321\350\274B\215\375=\013|=>\331\214Y\276y\354K>\312\032D\276\224p3=(<\"\276\374\0068=#!Q>Y\327\020>\253\345I\276\250[\'\276<D\216\275\324z\371\275\326\\\023\276x\003\333<\"\007\215=\0001\013\275g\210,>\024*=\275\\\230\377\275\336fG\276y\233F\276\262\021\212=\367OI\276\277\3655\276H\213\237\274\220\255\235\274\277\001\322\275\300p\007\276\262\022\232\275\354\341\341\275\017\260*>\375\225\r>f\331\251=\322\244\237\275\304U@=\321\272\024>\230\266\271\275|\325\023\276K\302f\276y\206>>C\021F=\220\245\300<!\237A\276\330\330\324\275\267\034b\276\342|\226=\277&\223\275#\245d>\235~\272=d\221K\276B\273\261=\346\202\356=\031\323\036=Qp\233\275\305P\036>\223\273c\276\270K\026>o\020\020<K\372\206\276\033{r><8q=\330\341<\276cP\000\276\350\327a\275\261k\032>U=4\2765()\275,L\017\276\214\222N\275\306\257K\276UCD\276sK\004>\205\333t>\365\353\035>\311\234\323\275G\346#=\302\375\030\276\201\316\313=\215\271)>\322D\330=dt\352<\345Z\026>\326%l<\222[B>\016@\327=)\251\352=\337\264\026\276]\370\245\274\036\273\225=6\014\036>\227\340\024>u\034h>p\337\241\274|\304\302\275_O\035\276Rt\252=\225(\357=\267\361G\276\250^\013\276\247:e<\021\351\333=\313))\276\3050y=\002\032\326\275BE\216\276\277\347H\274$\210\014\275.z#>\225\362\361=w\214&>\337>\264<\t\014\216\275\244!\016\276\335l;\276\203v\213\276\n\3537=\353O\014>\210\370C=\236\301\246=\\\363+>\240\267\024\276\363\375X\276\357\251\022\276\251!\031>\305\'6>\335?\027>2\231\230\275\031\345\242\2755\244\036\276\304\\\210\275\313\353\310\275f6\227=\367\317X\276\264\217\036\276i<u\276\350\232U\275gjc>\"\315y\275\234\222#=\375\301\020\276)D\002>\373\003\214>\310$\366\274^\033c>p\374\250=F\316j=\353\327\n=O\014I>\225\216J\276\277\327C>\237\302\255<\034\360,=\372\023\234=\252\264\000\276\270\362\003=F\330D>bm\020\276\375\313\202\276\245\326\031\276\263\027\210>M\317\272\275\325b\\\276\016Y(\275\017\300O\275?I1\276\022\024g=\342\374\214<\263\212\236=\3574\303:z\374S\275\245*\030>`\235\034\276\\\275\330\275<\325r>EM\177\275\333\036\354\274\366\2023\276\201\316\261<~wo\274\264\315\313=M\330\000\276L\355D\276\253BE>\360\371\374\275\366&\004\276`\0178=a\035\300=\301\024y\276by%>\353)\214=\375,,>\237\342\365\275 \321\037\276\316\2627>7\004->y\024D>s\035\222\275\300\326\232\275\242\263{=\333\336\356\273\"gN>\336YV>\225_\000>\373\373S>\221uF;\252Qk=/\275\313\275\306w\340=\322D\364\275@l=\276\305\'\204\276\251\277X\276\231\362C\276?;Z>H\231M>*c9\276\030\361\250<\230v\351\275\207zY>\016!x\276d$Y=:\r \276\243\001\332\275\237\003M=\303\206\n=\3247.>\273_\220\275\266\264S>U\224\213\274\001\277\367=\005p\250=e+r\276\004\205K\2767G\020>\021\330\216\275\320\201\203>\n\272\302=\014\327\001=S\035\274=d\014\014=MZ\275\275\300\224\265\275{\022\307<\016\302\021>\204\320\006>\210\200\237<%\326\313\275\225BJ\276l\242\025>Mf/>\255e`\276\323\203\025>B\252.=.\360k\276\325\316\320=\243\\\275\275\204\334\234\275\271\2172>\315\260\023=\361\236\'\276)\335\302\275\204\025\266=\235}\n>\204\r-=0\027\311=ho>=E\263\034\276\023\252\375=\203\013X={]\273\274=U7=\017\245\367=\353V\036>\265^\326=\036\357\235=+\357\343\275Q)U>,\345x\276Z\311\033>\243\227\213\275\014\215\"=\367\376\360\275w\333\013\276K\346=>l\341?\276\026Bm\275\247\215l=a\275\024\276\325\363s=\020\344-<\375\222_\276\343\3374\275\024\261\"\275\026\373\206;FuA\276\265\301\337\274\200?I\276\020p\326=\207:\355\275.;W>\316y\254\275~G\306=[^N<9\026Q>}\3267>\204NU=\n\222\236\273\233Z|\276s\016\033\276/)\212\275\0367Z\276\266+}\276\224($\274\364\350r\276\221\202\013>\274\275\370;\242\247\227=\027\0237\276\031\266\007=e\376\017\276\200\037`<}:\223<1\322{\276\005E\003\276\034\355\005>a\r >\214Y\">\243\030Q>\277\017\013\276tN\234\275\273)\275\275q\030^\276\024\232\016>\333\376\246=Z+d>\376\273\213>\377,Y>\263j\316=\371\235\211>K\335->\330\277>\276}\017d\276=\310\304\275\214\230\225>0\023g<\303\r\242\275\370\232;\276\")v>x\267\210\275\250\362Q=6wO\276\217_\232=\\/m>,^\313\274\037\002\211;\253\2107=z%\276\275V\355q\274Ip\023\275d\325X\276\226\361\033\274\212\357\303\275\344\307~\276.\034,>^\316j=\210\024\272=\261\345u>X?a><;\313\275\336`\246=\203_\016>\355\273O\276\003u\235\275\013V\177>]\304\030>\001\227\371\275by!>\211\353B=\034i\000>V\264\275\275\353\337\332\275on+>\203\260\266=\234\210\300\275\030\025\340<\010t\223\275\207\212\023>\365\304\342=,*(>\000\253\037\276\246\362\025=\027\330\021>\"Y2>\252\030\216\275T\274-\276\255@\n\2761\263n\276\031\357N>\362\031.<k>\204\273\362\006\306\275\031ay>\353\177\376\273(\202\331=\362\023\355=nhb=\376\364Z>\2103\253=\365\317\332\275^\375<>\000!\202\273\360n\005\276\312YI\276\313z\224\275\001\341\020>\016p@\276\3236\244;\250\207\027\275\247{\320=$\244e\275\246\352\242\275\020\035\223\275K\2203>\241\352\345\275\356\366\364\275\370\267\265<\335_\000>\340\355\252<n\005\223=\300I\201;\330\252\214<rc\207=\242\271\274=\024F\036=sY\320\275\016\370\232=\303\025\000>\2064\255\275\024\013U=\240\020\374<\320~\244<\000[H\275\001\225X\276\336w,\276\360\'\271<\000\000\3339@\256=<\271\264A\276Aq\025>\255%\036>\265\313!>N\033\321=\203\336\001\276L\242\370\275 \364\026\276\"\003\325=\326\252\213=\240\205\327;8\374;\275\257\243\027\276\201\223\013>s#\030>QT\317\2752\277\"\276\033\014\013\276\212\365\304=\\\225\272\275 \221\237;\243\352G\276\224\361v=\241*\320\275\342\260\211=A\361*>\336\024\225=\305\311\\>\030\304\230\274`\336\177\275\252\007\346=MOI>\257=<>\234\262\'\275LxW\276%\311\030>M\266\'>,[\321=\\\346\026\2761V\237\275\221\317T>\313\335\251\275\245\005j\274\031#Q>=\375b>A|\330\275o\203*\276r\254=\276@\272\235=\240E_\276g\360)\276?\200A>\177\001\255=As\r<\004XO<\277\014.>\025Q\245\275\370\274,\274\236\300\321\272\3466i\276\027\0254>\003\207]\275\030\302W>AF\023\276\017\272\254=%\212\\\276\270Ep=\324L\211>\300lP\276[Zm\275 @\275=\004\303J< \266->\261\332\301=Uy\272\275\260\200\t\274\210\2036>\274\217?\275\034b\n>\003a\231=\376\333\017>s\'.\275\307\367\261=\021\266\226=:8t\275\262\302\004\276\000\225\307=\177\306\337=\007#\006\275\367\213F>G\236}:_\361I\276}x\215\275\003\277;>\206i!\275\300%\345\274\275\003\002\276\224\016Z\276by\347\275v\212\323=\200\332\\>V\024\245\275\324\272F\275\257\325.>\0038\357\275\362\t\354=\035\275Q\2760\276\341<\210\220\221\275\241\265\020>\336\377\354=\'Q\002>\210.\233<\214\307\'=\204\242\202\275R\\\347=\000\373\031;\340\323u<B\321\263=P:\275\274\034N\205\275\272j\267=\010\373\270<\035\326W>\313,P>3`$\276d@W\275\022\316\320=`\007e\275<?\177=lK\016=\352k\216\275\316\021\336=\350(\233<\266\020\007\276\370\277\365<\303\037)>\233MJ>\203\0002\276`P\r\275qO\023\276\005\254[>R&\206\275\263;Y>-\234\032>`\3276<f\032\277=\026\244M\276\362\321\311=\210\377\237<W\0006>\032\212\301=.\016\272\275\300\327{\275\226\356\307\275\264,\n\275\353\301N>Y\202\006\276-\300\007>\032\266\207=\370!\346<[,O\276\025\257F>\"9\231=\372=\257=\356\313\266<#\331\034>\357l[>\370q\035\276\210\302&\276\221\032==DY\222=\375\204C\276g)\021\276\232>\013<|^\334=\256/{\276\226K\020>\212\224V\275^\2767\273#\315\260\275\246\342\260=r\003\232\275\220f\024<\244t\206>z\270\250=8\244\243\275\204B\225=\363\210r\276\n(\311=P\215\000\276\3301)>:\231\242\275X\203\201<\233\022\300\275\002\\Q\274\'\002\211\275\364\027\036>WT\033>\007\025<\276\222{?\276}\345>\275\t\325a\276\206\360\306=\320\314\235=\363Ii\272\026\363\210>d\2217\276\rC\226>5tu>\275\356\226\274\030\212\247\274\326\362q>n\334\200=#\210\007>\266\211v\276\366\354n>\273\347W>@t\034>>\257\237=\025\370\336<\222\321\302=\313\246\024\276\266\177\364=\243\034\022>9\177\355=C\'\r>\'m\025>4n\262=\325\307\213\2753\254\317=\032\304\303=n\336\240=s\0063>\261\032\251\273\233\230#\276Ev\243=\021\323\023>=\031\037<s\241\253=\312\222\037>\241F\234<~\326\020\275,\n)>\273(t>\013\260\344=\337[\014\276\251i9>\335\257\361\275\026\342\363=\314LB>Vm\255=\316G6\276\251.m=r\246\277=+\013\356\2732\224&>\272`R\276\224\342T>\034?#\275\013Q\200>\245\004k=\021\276\204>\322\304\033>\"MS\275\246\256\021>\377\375r>+\370\341\275\356]\032>M\327\327<\243\272\006\276\211\207\350=\017s\n>\224F$\275\372\204U>\2169\350=\227~A=\364\0146\276\214j\347<\017O0>\375s\026\276\320\035i\275\001\264&>\353\221\025>\344\207\352\274LA|=\346\236z>\306\332\363\275\005r_>w!\026\276\304?$\276,\362\220\275C\302\334\275A9\024>6\227\305\275\342=\355\275h=\245=/\312\177\275\342\240\246=\\ST>\330\230\000\276\342\206\007>\024\003\031>\276<\320=<\232\214=\320\304\202=\005\322\370\275\220\311e>e\235\357<\262L\253=\340\212\316=\330\010\261\275\207\230E>\347x@\276\266\366+>g{\260\274\\\377\333\275X\372\213>\240\311\200\275\276\302\367\274\266\354t\275\330x*\276a\271Y=\350\340\200>[V\001\276.l\257=\351s\030\276rnr>\r\223\037\276\024PG\276\020m$\275\314\357s\275\225D\024>\343\341\341<6\205U>\237\031 =\2564\">\251H^\275\303D\251\275\006U8=z\276\213<\231y\364\275\375\224S>\272\032\377\275P\266+\276T\010>\275\"\224\247\273\377\221\017>\324\010\020\276\330\220\344\275\327\274;>&\n\272=\366\343\027>\311JF\276\374\035\025=\003\221\345\275\302\356\354<z*s\276\025\r\273=\256\250\022\276\361\352\026\276]\310K>c\010\331=\2434I\2760\364\r\274\0300Y\276U\036r\276\006Ke>;\372c>\372\341\316\275mAR\276\301\035\206=\024y\002\275\277A+\2760I4\276\021\322+>1\301f>\326\031\322\272\326\257#>8\246\020>R\343\376==\377\'>FSU\276\203\267Z\276\367f:\276\357\365->\227\010r<\255\th\276\330\272F\276\203\214.>\230\177R>\255\010\367=\'v9\276\361\022\276=O\216\n<p\276\251\274\365\226l\276 \302\201\275\206\320\001>\271.\017>\377\226+\276C\216\225\275\205\270\026\276\177\370N=\302\365 \276\000\016\306\274\006D\021>\026\233L\276Vc\r>d\177\t=\313\360Z\275\036\270\216=m\320*=\352\t\001\276\340\'\020\276nX \276\301c\300=\322\227?>\30756>\332c\253\275M\277\351\275A\t(>\235`5>p\376j<\020@\022\275\240\315\326\273\361[6>d\356M=\300\341\306<pG6\2768.\r\275\212b\266\275\314\275;=\275\350\033>\3153\022>\006rF\276\320%X\276\3452O>\310\312\213\274\306\357\227=SFB>\367 \014>\250\313:\275\223\323\377\275\007d\n>\275EO>>\332\225=]\225\036\276i/?\276\344 A\276\352\003\227=\206!\223=\036\362\311\275R\024/\276\324\007I\276\033\347&>68\271=\030\n\343<\227\300\022>\350\3565\275@/\023<\241\215\037>=\314\032\276\200\310R\274\302@Y\276\302\363\203=\020\367\364<\344n \276\344\362q=\027\346D> 8\352<\217\350;>*\345\203=\260\232\271<_g\034>\320\373\007\276\000\3573;\306e\203=\252\335\207=Qk\">\224\354*\275\000\200\0259R\313\307=\372)\340=\332[\332=\223\364\315\275{\204M\276S\375\304\275\235LB\276\000\207t\276\211PL\276\217\217e\275\360\364\216>.\267\375<\334\343\033\276(\365\305<\350\001\376=\023\235\340\275r\261\270=\035F\311\275\254\003,>\330\324}\275\301X\262<\221jC\276\037\370|=~=o\275&\205z\275\354\2448\276\026\324\332=Z!`>\014\3127\275\203\337\330\274\364\357p\276\201\307\010\2762\263\003\276w,\237\275e\026G\2765\346\005\276\261#?>\246t\253=#\2203>?\335\307\2755\202\355=\340Y\246;\336\260\265=\014!\354\274\3562\277=j\013\332=]\033l\276\375\331?<\351\315|=!\203\210\276\022\360\006>\322\000\224=\215\214-\275\337\323\034>\340\257\360=\311\346\337\275\337\211\210\2741\036\322\275=\003m>\031\2045>nu\037>g_\036>\355\2455\276\036\021\203>\242\262\355\274]\002\r>@\2549\276w\213\037>?\325\347\275\023qt=\236\'2>\256\2030\2761O\206\274;\250.=\337\242\330\275\250\3324=(\324s\272\014\305?\276\221k&\276Pt3>\266\210+>\231\245\342=\262Q\020>L\316\010>F\262\201<\347\225\007>\204\345\274=\021\270\221\275\003f\210=\245.b>\207D\240\275\213\377\030\2761\302\344=\310o\314\275\0279.\275\021s4\276\320$5=\211\351B\273[\315\362=\017\274\203\274\327\332\252=\376\222\\>\216\035\303\275\246\235\201\273\316\346\303\274\252A\245\275\200\333(\275\203\210P>Q\036@>\035\210\354\275f\034G>\317\003\225\275\356\262[=IR\224=\000\312\310=\221M\021>\rd\246=\361tz=\376C\333\275\320M\345\274\3315\033\275\240p\351<]\024\264\275\010\272\223\274}\3539>r\223\226=y.K>\256\242G=\210\306\270<A\220\337\275a\265\036\275\207\"\031;PGS>\016\nY>\220\256O>\374\371\305\275\r\363\021\275oZu>\217\256\"\275\247\242\026>W\205\314=c\031\000>\362\026\315=I\344\267=\0141\310\275\257\243\313=\202\346\023>uk\332\275\342\215\232\275\307\211W\276\215\325%\276\315T\357=\304P\037\276\366Ll=\2250\025\274\305\361\247=\'\014\032>\327R}>V\373i<\254\030\024\276\376\215\333=\327i\t>\024(O<\317\3762>\332`.>O\333\234\2750\277=\276\006{\345=Q\027\312\275\260\206\007\274\300\255\313=\202\227 \275\374\351\r\276D[X\276\364\311\005\275\314g6\276!\025 \276\226\247\006\276\312c0=\010\345\267\275\352\346/=\026\216I\276M\016\262\275N\026\242\275.\003,>\030\026H\275\246~\226\275i:<>\020\246F\275\301\344\305\275;7\007\275\020Nm\276\014\216\305<\255\004\r>\013\274\206>}\203u\275\366\n\247\275\263\326E\276\353\177?>\264(r\275\234\003C>\261\357\177<\346*\206>\2576\275\275\333p\242=\240C\037==j*\276\216No\276E\254\014\275\217\263[>,\252w>\004Y\024>\363M\245<\306|\216\275\204\350\203\276\235\032\216=\257\205\221\275\254\240$>\226\246&<\3376\326;\231\374\001>T\306b;\001>\231=\317\023:>_I?\276f\211W>\314Q.\276\342\301s> ]\222\274\343U\017=j\203d=\211\213U>\2771\003\276\323\351G>\021\341\330\275<\215\254=3\356I\275\241\021\213\274\317\0346\276Iq\335=7\354Z\274t\014W=\021\255\032\276\240\020S\275\226j\260<g40\274\253<\207=\364`\265\275\010(g\275@F\"\273+$\252<\010\334\232\274\37254\274\253\004\322\275\r\200\363=k\277\307\275\004\211k=\006P \276G~\221>\374\304C\276\341\225\316=\323\314\"\275\252\241\370=[T\320=u\372 \274QM\226\274[#j>\277\020\250\274\346^;>n\025\363=V\215\376=\202\33268\310\3216>\206X\030>\030\003\024\276\244\027Z>\237\336\237=\000N\345<F\366b\275\304`\334=L\231W\274\250\225%>\276\'\371\275\236\361Y=E\005\010>*\277\200\275\365W\322=\316\245\n\276\353\3475>\205\211T\275T\250g\276\315\241,>\346\274-=\263u\252=3\231N>g\3773\276\306\366(>\005P\025>j\267{\275>\216\347\275\244\350\340\275\371\2338>:\336>>\353\017\215<\314;,\276\201\\\215\275\254\026\232=\362\334W\276\334L\346\275\\\372\325\275Q\306\026\276J.\\\276\220\310#\275\364Cb\275B\271\200\274h\234i\275\267}\330=\207sQ\276\346\336$>|\246\n\275\007\013G>\356\311\323=\333:0\275\372\357\263\275\252=\256\274\371\341\274\271\020\233\021>\002\310\036\276\002\322\212\275\273\247\t>-R\002>\t\374u>Z\237\021\276\3347<<\333\222\016=-\367.>\256\314\016\275\007\270\014>V\203i=\255n\036=\203aS\276\376\026\305\275Z\017\033>Q\017\355\273z\254_\275x\311\025>E\353C\276-\326\001\276\375L\302\275\240@F>\306nE>\200\216\314\274\224\322k>\265\257\037=]s\006\275\020\246\272\275?\026\017<80\246\274\346\306\371<\326\215\364\275\272\032\\>\006V\276=\364\031J>}\351\341\275\225\235M=5\215\366=`(\220\274l\376\337=\213\016\013\276.\\O>\276\032<>j\212\302\275g\366R>.\342\030>\215E$\276D\215\020\276\266\266\005\276\017\034\"\276\237\274+\276\"\316\005\276\3276\325\273P\177\245\275\022j\374\274\rn\272\275\260\351\203\2754\030\326\2753\307\006\276\\\270\014>Y\326\242\274\3748M\276\013\206\267<\340\013b\276\246]\033\276\276V\357=\334uP>(]\002>w\377 >\215\025#\276\2030\026\276\200\373j=\010\302\t\276\371S2\276\206\257\371\273\032^&\275\230\347\300=\226\356T\276#\260\026>\322\3058>\306\340\331=G\325Q\276XV\366=1\245F>\327\324X\276\317\215u\276\347h\213=\301\324V>\311*\251=\335\247,\276\313\353\"\276\\\367@=M1C\275\372=\347=\000\357\033<XG\037\275\342\tU\275\226,\247=}\236$>\222S\231\274r4%>Re\000\276\037\203I\276\353d\010\273\267\333\211>[w\274\275\332\326\377<\000H\226<dQ\036\276\203\203\000>\364o\016\274\314\217w\275\370*\374\275\177\tQ>\\\344\353\275\370\307t\275\372\212\372=\220#\307\274$\276\336\274pu\017>g\347T\276\310|`\276\365\326\323=x\n\204<\023\327>\276?\321\362=\036G\010\275\302js\276gU\257=g\006 >\334\356\276=!O\r>J\342\323;\004\367\004>\216)\t\275]&\350\275^l!<A\325\246=\001\235\002>\213\352\350=\030\343\320\275L\332J\275\374\255Y\275\020\321\230\274\327\257]\276\3442\207\276\254\367\237\275;\314\205\275a$i>\001\307\370=\205\261\360=\023`\036>\rA\\\276\022\035\033\276\327\257\270\275\315\263\347\273\303\3639>vd\225\275)i\253\274)5C>\\\266t>\372\246\304=\321\223\025>Y\263K>\307m>>\030\352\352\2751{\177=p\027\350\275\017\006k\276?k\224\276\263\236h<\002\033\307\275SFw\276\350\341\032\275h\354\320\274%gI>\242\370X\276J\354\307\275BJQ\276e\317X>\316\016\321=\000t\226\273\213\345r\276\210P\026>k\301G>r\"9\276\313\376\245;\177\305k\276\017\354\037\276&Y\342=@C\256\274\2540_\276\225\010,\274\227\023\320:\325=\020=<\177\363<BD\'>\211Y\265\275\321\316\250<x\245\035\276\226\357\'\276\261XN\274\2535\214\276\225\036\251=\205i=>\360\025\332\274Y\244\367\275\325\376\365=\001g\246\275\031\337\205\276\237\035v>l\201:\275\220N\204=\204\025~\276\321N;\276\2532\323\275\350\t\300\273b\271\340\273\306\213:<\334\330I\276n-\023\276\371\267>>\032\r\266\275s\366\377=d\005\223\275)<\\>\335,C\275\353\010[\276X\331D>)\304\210>\334\277{:\221m<=\332\270J>\201\2620\275\3426\034><\343Q=|\277>\276f\202\000\276\376\306|<q\003H\276\351\244\333\275.\230\306=\262F\222:\311j\333\275\322\317h\276\037\371.\276a/&\276A\372e\274Z|)\276\241\334E>\007;a\276\352N\252=\274i\356\275bl\247\275\200\223\223\272}1\005><\321x=r\251\222\275\233$U\276\240\220\033\274,1\003=\330\3301\275\240?\344;\017\210\302\2753k\361\275H\220\306\275\013\023[>\236|\236=\007\0258>\375\335\310\275\340\245)\275x\200,\275\334\3771\276\340\271\022\274\006a\217=\024\340\247\275U\344\t>\270/\010\276\233\264G>\336\306\335\275X\330\031\275n\2714\276\342{\350=b\205\221=\276\301\203\275\230\334\034\276\0005\366\274\2753\025>\357c\322\275=\005E\276H\333;\276\220&t<\376\262\350=3\367\n\276\334\016`\275\001e\303\275,\020\004\275\201\2173>\304\3177=T\332==\204\2723=\333\001\026>G\324F>\005\314$>\352\004\027\276t\214\'\275\201:\362\275\300\257e\2736\313\324=\370\330\371< c\303\274\340\222\336\273l\304X=\010\211t\275z\213\252\275\372\334\215<ZK\\>v!\003\276G\323\367=\244\377&\276\t\333\177\275\233\346\200=y3\006>\266\270\007>\001\235\'\276D\273\351=J\221\224\275X\305[>\204\316F=\2620]\276 pq\275*\375H>\247\344\203=\000nc\274\201\276W>\324\024\307\274^\004\315\275;\273`>C\315(\276\224\204>>\254\316\214\273w\225+<K\2345\276b\030\004\276\027\000\235>m\250\033=\243\226\267=\251M\264\274\340c^>\026\356\343=\030\315\240<\033\317#\275\2140\"\276\010\205\262<\266\276\037\275\372\372:\276T\354\235>\251(\023\276\253\247D>\233\353U>5\331\016\276J\003\236\275\013C\321\275\374\"\r\276^\006\213\275\t\244\314<C\004\223>\177\005!>\234\355\032\274\224\2358\276\207\306\024\274\225\342(>\022\322[\276u\004\357=\356\031\203\275\031\232\265\2758\326\203\275\005tC\276\331\277]\276\245\223\211\275\277\220\354\274l}\334\275\256Q2\276\2733<>\274\233V\276u\003\277=;\266$>(\0301>\257\374\237={\0309>\327q\230\274\253c\200\275\216q\017>\017\234\304\274(Z2>\216\211a=\3442\206;\372\337\364\275Q]\222\275\274\262\261=\346.\325=\205T\330\274\006\362R>\325\306\316=mZ#>m=T>\342-\237\275\340\324\321\275\250\326\360=a\301$\275\014\215\006>\031L\222\275\021\260f>\274\307\215\273\356d\224=\270\324b\274\323\251\341\274\017>$>\231\251\010\276\237\250\033=\355a\217\274v^\252\274\252\250\010\276\363\264P=Q\371\256=\233f2\276[\342\013>@E\025\276*G\260\275d5\241=\r\031C>\272q\242=k1\355=\221|D\276\303\236\177\272\005+\032>|\242\000\276\317*\032\276\013_\241=2\206\271=\262qU\276\344\255O\276R\033\363\275i\006\366=\344\260\323=\'\tM\276`\303\332={\3334>&\034\335\275\177\373\022>\336\202\356\274\370\007\274=\264\233\t>P\313U>\217\366\201>\033\306\014\276\202n\314=\311\226L=\2205>\276%c\017\276lv\352=\256_\355=\226\221e>\372x\324=0\331\314=\n&S>\377\\\370\274\247\3270=\372@\341<\316E\246\274\302\313\220=\233PL\276\341$\353=+\331\272\275\177OI>\204o&\276_\334D\276L\262\n>\314Qd=\035\375h>\207_%;\020\'5\275\322\3075\276\014A\030\276\251\261\216\275\242[A>\2457\357\275lc%\276\225\256\301=\212>A\274f\2102\276 :{\275\247\212%<\023\1770\276\226\215 >\372\246\370=\307\246[>\370E7\276\310\222.\275\213\213\007>S{\307=\316\207`\276\027\366\352<\205\231:<\033 7\276$n\224\275\220\362=\276\376\207\200\275\330\224,\276?\\O\276\332\225\302=\226e\227\275\370\215\365=-\372\342\275\005\227\037>\333\010\032>%\017\210=TJ\222=\350\245@\275\367\016\246\275\036\215\325=\231\364A>\345\220\250\275\237\030\013\276\033\032I\276\200\316A\276\002F\'\276\375\233I>\026c\240\275\205>r\276\037{\347=\351\377\200\276\352\'\252\2756$\030\2751\242@>\225\355\032\276_\007\204\275,\347\241\275\265\213\201\276\226\022W>\"\320\232=\362\220\241<\234\333\203\273\216\274\376=J\317\204>\346\306Y\276\347T\007=\235&\224=\225k\"\274\343Pk\275Aq\332\275\212\207u\276\024\035Q\276:t\200\276\2368\351\275\037\3049>\333\320\210\276\373%\316=\312\221\243\275@\300\241\275CI\243\275\326\220\224=+|\016\275\014\227\217\275\253\202w>b\260\354=\001}\000\276\367\363\023\276V\276\257=\3162\230=\201SW>"
      }
    }
  }
}
node {
  name: "dense_1/bias"
  op: "Const"
  attr {
    key: "dtype"
    value {
      type: DT_FLOAT
    }
  }
  attr {
    key: "value"
    value {
      tensor {
        dtype: DT_FLOAT
        tensor_shape {
          dim {
            size: 64
          }
        }
        tensor_content: "\302[\225=h\035~=\005\320m=\375.\364;UuO\2744\241X\274\013\265T;\354\0372;H\223\\<O\031\370<T\214\203\274\205\255/\274\317\330\020=z\032\"\274h\371s\273\024O\014<\313\203\267=\323\032-\274\000\000\000\000\036\317|=\031\233\366;\343X6=\266\235\241=z\0065<\204\030\276=*\333\354\273\253\236\215<\021\242\365;\000\000\000\000\177\242\267=\373\333\225<n\217\220=v\225\241<]m\254=S\333\214:\271|\n\274\241\240\370\274\013\265}\274\000\000\000\000\372\\};V-&=\004\243\272=\206\200\023;\216\001\244=\001\251\257=\355a\362<6\362\240=B\266\034=\000\000\000\000\264\276[=\205\357\250;\260\021{=\000\000\000\000#a`\273\000\000\000\000W\203\t\274\000\000\000\000\215Y\035<\347\017\266\273 \243\244=}\355\245<\002,\257\273\n\330Q\274`I\232;"
      }
    }
  }
}
node {
  name: "dense_2/kernel"
  op: "Const"
  attr {
    key: "dtype"
    value {
      type: DT_FLOAT
    }
  }
  attr {
    key: "value"
    value {
      tensor {
        dtype: DT_FLOAT
        tensor_shape {
          dim {
            size: 64
          }
          dim {
            size: 64
          }
        }
        tensor_content: "k\302*>)\030M>\2442)=k\215L>@\321\226<@\345\244>\250;\242<\364?\024\275\362x<\276HZ\213\276\257w\243\274\213mH\276\251\272G\2732\202\373<$\316\t\276Z~^=YO(>\005\036\r\273\377\301/>@W\227\275\025\323o\275\000v\353<\033A\277\275\367\336L=\235\272v\275v\0272\274\371\'4\276#s\003>0\230;\275>b \276\223\310%\276\314\020\220\275\263\272s\276\307\307\033\276\211m\211\275\232vB=7[Z\274\r3G>j*\210\274\376V\314={sI>\264\316@\276h\242f>Ho\212=\014+(=\361\305$\275\201\036\246\275.\357u=0a_=\331a\020>\211\360\037\276\303\343\t\276Q3\\>\361\023\016\275\037s\022>\241\316\007\276G\302\323\275\265\262*>\225x\304\275\306\202>>\213q\\>3j\321\2757cZ>7\n\t\276\002\014\264=\313\303\371=\032\310\243=\207\343\013>\026\302\362=\364m\213\2750\016s\2757\005\000>\021\0241>\323\3134<K\271\210>\355\210\366\275D{\"\276\2719%>r\346\347\275\211\374\342=Zh\356=\215F\">\256\205\224=s\365\022>\347\177[\276\315*)>\025\3639>\236\346(>\351\347\213=\203c\354<\270~\277<\023\354\221\275\257\331\347\275\201\332\316\274\027.\200\276c\007 >\323\346p\276\362\tB>\315AT\276\006,3>\215\\\246\275\227\263}>U\023|>\366\373\036\276\t\331\246>}W\262=G\rN>\00190<n\250X\276\255&(\275\3633\250\275\345T$\276\324\217\033=\352\244\030>\200H=>\251x\317=\244\263I>\342\033E>\310%\277\275\316\216\200\275\354\023\351\275\r\376\235\274\335\201\216;\332W\027\276\336\254x=n\\]\275\005^\253\275n\337\345=\300T\030>T\276)\276J\272\224\275\034\231i>\273m\337\275sY\315\2755LD\276\234W\021>\210F\3368\"\030>>,\013\354<\200K;\273\"\334\016=\246\206*>\031[\261\275\376\305\222=\324\t&\275k\2332>b\262\302=\376\371\"=\n\211/<\317\306\010\276b\021\350<\224\260G>))m\276\031Xe>\024\270z\276\'\270\310\275\375\272-\276]F\026\276\305\301\377=\372`\300=\350\244\346=\215\006=\276\3240J\275mU\031\276\270]\322=`n\215>9\222\001\275\274I\270\275I\353@>\214\277*\275=\314\223=\350+\035=\005\3005\276\221\202]>\031\364\371<rd\305=\366yq=g\224\010\276\212\244\020>v\236\017\276\222\002\207\275g\035\210\273\262A\\\276\357\215\023>\004sX\276\254{/>!El=\344f\366\274\336\256\005>\0273\t\275G\t.\276\374\257X\276Q\0345>!\216\326\275\000.\350\271\274f\361\275\024\335T=\375%\230\273J\033\320=\313tP>\006\377\257<\231\223\036=\320\327\376=\336\034\032\276\005\312X>\376\333J\275\312\030\001\276M\345\202\276\200\010\352;\231X-\274l\374)=\203\222C>\3629\300<\034wZ>\211\220g>\004D0\276\'\n/>\255\026\310\275)p\207=\2759\033<\331L\221\275H\'6>9l\333=\016\236\234\275Y!\240\275&\357\212>2\031I\275\305\320\204\276<T\366=\031\257%\276i\222\033\276Two=\321l?\276t\263\333\275\027<E;\373\035D\275z\232T\276\367\363\025\275S\356m\276O&\331=\3452\354=\2252\350=\354\324\\=\035h*>\376z\323=I\260\227\275\262\374\210\276\200\247d;\204\225A>\rPn\275\007\204(\275\035v)>\243]\371\275\347\342\352=~\016\330=\365;V>\034\316\365\275\023>/\276D\251(\276\364x\255<Yc\312\275\376\204i>\277\326\275\2751\375 \276\275\260\340<<.\022\276[\264g>\236\247\261=\000\"<\275\313Yo\276G\333}\275\317j\316\275dl,=E0\202;\222\341\026\276S\2074\276\352\014<>VN)>\r\276+\276\216\017o=p{i>\246\372&>-5\274=\274\266\n\275\261\220{\274O\240\014>6\215\246\275\276\230\013\276akE\276\234\211k\274\224\224\305\275\342Y\235<\031qa=dp\207=\310\233\006=\344V\273\275g*\261\275\032\023\342=\336\321\006>\366\300\347=\235_,\276\303a\021\275\005\003g=h\272C\276\360\023@\276}\253\026\276p\317\030\276\300\3736\276\204\202\236=\341\301\264=\035\261\001>\345q\366\275I\276\222\275\277$\217=\032\231\027\2763\252\">L\341#\276\355\nO\276W\266]<\240\252\350\273\316@\030\276\036\222R>\313cD>\252\301\025>D\325^=!\\&>k\177)>\256\325\257=@98=\257\331\307;+\315\006\276\237\352\277\275\261\342\264=Q\213f>\207\243\016>6_\270<\303\221Q>4\030\332=BQ\256\2753H\031\276\241\327N>\017\246\352\274\341\321 <^W\336=\377\031\"\276/\270\236\273\347\215\236\275fE\r\276\335vZ\276\330-_\275]\314\314\275d\300\025=\335\0059=\264\216\227\275\204B\254=;y\014\276_D\021>\367\367P>\262l\227\275\240d\300\273\376\010\025\275\365\321\373\275\275\372T=g\232J\275\224\205^=khG\276r(i=\037\374`>\013qv\275\337\373\">\303\010=>\205\000\027\276\256\205\216\275L\373\261=\250{}\275d\215\032\275\2650a\271\035\032o\274gC\354\275fh.\276i\214\350=\336A\025\276V\300A\276sc\r>\352\363\354=7\250\036>w\207\016>o\001f\274\276\230\203\275^\201]>\301!]\276\273t\023\273&\\j\275\207\330}\275h}\270\272\000\334)<\007\251m=\322\356O>\350.\211\275Fk\235=\231\257\031>\247\200\320=*\005\377=\016\265*>^\361\223<amG\275t\216\330\273\r\366\024\276)b\036>X\023#>\253\013\025\276\313\336\321=h\343F>\302\263\007\2767$E>\330V\201\274\313\212W>\235\345j<\346\2537\276I\240\212\276T>\212>\021\354\327\275\024\224\272\275:\312\270=\220\324\277=GD\022>&\227^\276X[\201>\247\016\031>\236\267\333=_\235\331\275QRV>\267&\211\275\247}\364<\302;0\276\024\007\035>\203\336\377\275\371\034v\276{5P\275@\2217\273U\377\207\275\304\256k>\322\240\242\274\334S\021\276\014\3248\276\245\0148\276\265\324D\276k4\006\276\036\273\263=\267\374\202>T\311\014\275\243\\M\275\3409q<\236\205B=[}Y\276\036\2537\276\033\004\315=\302\304[>jq\037>\025\226&>,\234L\2767\010a>k\257\202=)\006\315;\016\002\215=5\261\n\276\240\355\227;\365\240\006>q\032Y\275@\023*\276\025\240b>\350\3619>\247=\\>\327M\321<g\016:>\231\026\357=\224\263M\276]\320\033\273/\316\010=\323\004V\276\273\230\032\276S\014;\274\335\242\025\275\262\253\377=In\333\275\n\3046\276\337r1>\350F\212\274XV\326\275\307\330\333=J\025\324\275\362\233?>\321K\r\276\206\210\020>\035ld>\232y\023<@\325[>\243\220\000>t\207d\276q\010P\275\267A\036\276\300M\300\274(\020\025>L\017\n=\360]\'>\024i1\276X\336v>Yf\007>\307NI\276&\2170>\342,C\276\200\210V\274H}\207<\307]\233=@\373\201\273m!\352=)\2461\276\336\267u>M#\277\275\007u\321=\243\265\256=\n\215\205>N\260\314= W\220;\016p\001\276\353k\331=.\034\261\275\267{\270\275\211\257\027>=\235\375;\275\223#\276\203\356\223\275M\312\257=H\303\026\276V\251i\275jo\222>\302\t\020>\267\221Q\275S\037\205>w\276\310=\366,\017\276R\0341\275\212\027\243=]!\035\2769vH>\316\002z>\311\033>\276\301\321M\2760\224\177>!\0347\276f\250e>\022\267\026\276\362\371\264=&ZE\275I1\035\276\244\274%>8!\240\274\\\222h>\242\210\224\275\313\243\213>\236\005q>\253l\312=\322%\004\276)\254\331\275w\213\036\276ll\034\274N\261\337=\032\304\234=k\307\211\275\256_\'>g\252\362\275.\275\035>\303=q\276)\022\247\275\326\352\353<\365P*>\016\033)\2765\n[=\351dP>v\277\227=h\3102\275\030\243:>\220\362<\2765\004\332=\350\327\305<s\324\030\276\225-\032\2768\211\261\274\301\220\003>S\204\020\276A\\3>\310\261\222\275ZJ\375\275\323\277+<\350\314\230\275\027\332\272=m%\242\275\264\"R>\331\273\324=\376\032v>P\246\206\275`\"m\274\034\243@\275\233|\304\275\247v\036>\271\324G\273\374-/\275\326\360#\276[i\026>:\"\">\366Q*\2750\374\373\275N\035\377<\213\262.>\336\325,>x\210\344\274\240T\336=\305\224~=\'\213\334\275\250\352b\275.\210c\276G\222\207=\222\t;\276\366C\000=\022~\323=l\315\326\272\343\004\226=\252@<\276\230Wx=\003\004\006\276\033q<\276T\243&=\r\026\n\276\276\237\274<\334\312\245<\341k\000\276\202h\330\2759\2327\274\331Z\272=\004%\206\275\206\321\010\276\357\211\025>\014\303`\275\325\022\245\274\027\201\t\276z\354E\276\344\037\023=\236Q\222\275r\3151>\371\235\221\275\214:b\276\022\320\221=x\353\251<\362\323K>\365Z\346\274B\311\022>\364\331R\276\322\351K\276xv;\275\"\337\344=\0103_>\276*`\276E\2663>m\314O\276\246\204\306=C:-\276_\231,\274&di\275w\255\245\275\207\235\226\275>\241D\276\010@[\275\351A\341<\357\025\272\275\205\303\267\275\245\264F>x\301\330;\333u\250=\007\222D>\264\305W=\010C\350=z\337\244=\271\320\251<L\235\217==4\206\275\345=\255=\334\217;=t6*\276\271O\227=\265\372\374=Q\207k=\007\241\336\2753\242\250\2751C\344;\341\253J>\024E\213\275\203Ah\275O\276T\276<\362\270\274\"\037!>^\005\345\275T\253\234\275Sv\310<\300R\366\273>P\246\275\202\203\202>\307\353@\276\222\377\001>\235\210L\276\001Tf;\004\026#=\0138D\276k\353\255=\214\024\314\275\271\014N>\325,H\276[\337\344\275\014}\'\276\'(A>\337\357\022\2768\032\264\275\305:\272=\357\255\370\275\013\032\242\275\346V\325=\006(\377=\311O\316=Rr\r\2766\035Y>\304a:\276\003\013\'>2\330\010\276\214]7>Ym\375\273\256\262n\275\265\352\n>N\235\036>\322$\347\275%\217)>\022\374\236\275\242\217B;\244\235>=\252\322\332=\326V\017\276\305\240\"\276r\345Y>]\276\273\272\3431 >\2340\321\274\327\214\014>\2032X\274\026\0038\276\243j`\275\262\316\032>#y{\275\303\202$\276k=\343\275\\8L>\250;\006\275P\333\354\274\324\265$>!\331\337\2747\273;>\312Bv\275\376\372\230=\313\274L\276\037(\355\275DXG\276\331G\323=\211n\033\276\222\362\365=m\213\277=i_Y\276=\250F>\274\352u=u3l>\363\236\025>A\371+\2754\302m>J\257\353=`\207\350\275n6\367\273\347a\034\276\243\225\347\274tb\033\276\237\345\264\275+\\\032>\254]k\275\225\204-\276?\255\376\275\305\247\267\275\203\273\206>\024\331\022>\005I9>\374\2710\276w)\373;X\215J<\010)U\276\367\265!>H\264\252<\253\241\327<Y\376\013\276C\272\356\275==/=\030\242\317=z\351\207>\261+\322=\035EN>\263O\332\275\026r\025\276L\354\236\275.\357\323\273\\\000\002\276\323\021\220\275vH`\276\222&\225<F\357\230\275WQ-\275\272\240h\2746\320M>9\001\002\276\263\217=>l\303\254\275D\264*\276\322g$>\376+L>K\005{;\3540r\276x7V>\023\303\235=<\260\276=j\303Z\276\'\025!\276p\032\235<\037,\035>8\n\021\276\n\337\334=!\344\344=\260\275\"\274\361H\022\276Vj==s\212u=>\224\036\276D\354\'=\235\311C>\000\305~= \321\'<b\276K\276\\\340j=h?#\275;\225X\276\313$\n>\022\323x\275\017\014\300<3\026*>\321-\333\275\267\372\323\275X|\236\274\277_A\276\222\375#\2768S\332\274A\024\n\276\342\307\214=j\215\314\275\212\005\343=\n[\303=\210\327R>\310\273\247\275\265k/>\010\371\230<\320/\007>\353s\027>\360g@\276\352y\353=\361\004P\276\nz\330\275Ms:\276\'\312=\276\240_\314\273,\007\325=\276\314\225\275\034\310\247\275\030\334\376<\035\336>\276\200\267=\273\333E\255:\346\272\203=F\267\372=\326\025\020>h?\335=\232|&\276Y^\337\274\245*\347=r\356\357=\027g>>\324\342\230\275\220Z@\276\036G\343\275\246\244\342=(I\256\275\203M)\2764\023\256=Z\014\310= \232k>}7\331=\362A_>gi\010\276\306\030#\276\030\250\001=J\361G>\242TU\275\270\274\215\275\206E\367=\277=\327\275 \253\312\273#\330\320\274p\3213>\213q\243\275F\374M>\307J\217={\255\002\276\360\264?=\323c\035=yz4\276\224{\315\275\304\033N>\32601>\222>\303=\305\323\027>(\304\274= \340\341\275\327U\005>N\223\030>\241\366\224=\225\306\344\275\251\023\014>\364RJ\275\362\277\027\275\207\177O\276\312\365\226\275\326\245[\276\235\244u<D\303\373\275\016_\017>m2F<\373\354\350\275\301\002c\276q<8>\021@\273\275\231v\325=xJ\351<\216\327\226\275\364Fc\275v\323n=u~\000\276\271,r=8U\020>\254Q\302=\262\337\004\275\350\344d\275\024\030a=\177\'\333\275\207<L>-\";\276*\322\215=\376\213V\276\235\001\276\275\216yS\275\330\374[\275\223\257$>/~\227\275X\205\367\274\034:\027\276\206\320\204>\225U\n\276\030&\376\274mN\036>[\351\027=r\315\000\276\274r\r\275\334]?\275\264j0>;N\005>\313p\021>\353S\033\276\233Y+\276\373\312\026>\225H|\276p.4\274X<v>\035\311\231\275&U\231=\244\316\201>\366\271<>MqV\276\230>\264\275r\224S>\325\247\273\275\260>D>\260[\013<\217\316|\275\321\234\252\275\034ql=A]5>\200\177J;U\212\025>XR\354\275\021\364\211>\341\255\352=x\024\237=\340\002\202\275\313\031\027>\211\rj\276\327\213\270=\244\022l\276*\000\323=\242\227\307\275\352\020\007\276\257\221\213>\306bM\276\033>\270\275Y\031\345\275\206\252\325=\007\224!>\360C\003<\265\225\001\274\376\376\361=\272\331\325=i\262#>RJ\203=\261\334N>$?H>\351\340\202\276\215/{>\003\325\\=\013\230E\276\236\240\232=\347\263\223\275\373\253[\276\311S+=\223\214A\276\374\034?>,\246U\276q\n\021=\205;\031>\004\265\201>EP\002>\207\325\024>Q\222\331=Z7\214\274@\266\243<\202\245\216\274\t^\022\276)=\205=J\326s>\363jD\276\223\037\355=&5/>\260\322\242=%\205I\276\'%?>\231j\253\275E\330\376<X1Z\275\002@<\275l\222\374=\016o\017>8=\t\276\242\360\224<\t/8>\\\334f\276\307|6>?\263\246\275hf\234\275B\370:\275^``>\023/\210>\316\343\300\275\307\017\316\275\215\347\\\276\202\211\005>O\254\230>\364\256\310\274\231\335o=\300\226Z>r\337U>\230\361\t\276l\272G\276\373~T\276\365=E>?\203O>\037N =\343Y2\276N\352{\274U\033R>V\330\353\274\023\'8\276\262\255\240=^\2607\276\022\356/\276\304\026z\275\222\230\000>\000\342D<\212=\241\275\240\356\355;\234\320K\276\227\316U>\2461\332\275\330\246\275\274\236nH>\346\036\364\275\222*\010>m\\\026\276\315i\215\2753\210\204=\353\216\030\276\360fT<\377\354\211>D\221\236\275\234\017=\275\336K\202>m\316\334=\030$f\2759\271\013\275\256eN\275\273\302\024>\234\372K>\2748E\275\230\362\021\274\010t(\276\225\313\273\275q\305A>\263\266\220\273\364\367\247=\213\"a>\254/\017>\327\237\010\276\355\016\232\275\240(\000\275X\203\033>n\354\303\275\324\367\2459\200)\017\276b\252\321=\215+\314\275\355T\005\276\335\347[>\216\300F>\265#>\2760\222\003=\274Pq=\340\265P\275\r\"F\276\322\366\213=0>{\274\350\024\036\276\344\013D\276.2\251=Y2S>E\037\346\2755\3001\276\353+I>\000J\3279\230Y\302\274\234\325\t=\202*\305=\257\275\356\275\305\363\346\275\026\372\010\276\200/ \275\304\240\002\2756\020\353=]aW>D\256W\275\314\250\177=\2246\207\275\316\2774\276\256\016\343=Rj\314=\366$\022\276J\325\262=\034t\032\276R9\217\275\373\354\322\275B\252\300\275\200U\026\274\221\031[>\035&]>0f\263<@\207\247;DG\001\276-uU>\221\025D>o.\023>\241:T\276\035\267;>\242,\311=\027\026\025>C\375\347\275\2705k\275\0104\207\275b4\200\275\014\227\266\275\373\3779>\224\351-\276\206F\260=\373sE\276\3114\014>y3:\276\260\\\035<\246@\235\275\362\341\220=p\225\026\275\0108\201\275\324\234\027\275`\017~\274\200U9=\245\014\007>\342\306S\276\316\n\001>F1\365=sS\020>0\264W\276\331\303\367=\306\033:\276\232\220\251\275\002sI>6\373\016\276@\215\220\275\022CJ>\343*K\275\036\301\271=\3505\304\275\266\252=\274\376\227\246=\376\344\"\276\220\354+>\336\377\215=\031\274-\276\004j\350=&\325)\274\366~\220\27573/=\276+\341\274\327\266\003\276\350\355Q\276V\2142\275&\023\t\276\261\326#\276Vm\273\274\257i\322\275\027\355\242=C`\n>aV#\275\311K\224>\215_M>\215\242\243<\023\350E\276\222r\352=\006xb\276\345\033\006\276\312a\211\275\341\r\203\275&:\372=\000\222\272\275\374\362E>c\2200>3\024]\276t\006^\275\226\325\212\275\215n\367\275`+\247\275\342G\005\274G\035C>\247\227B=\301\2235\276/\310h>c\204j>s\271\237<\216c\316=`\356\304\274Z\224b>\254\244&=\250\323\355\274\3203\002<\312T\323<\340\274\342;D\350\372\274\311[\005>\302\334\260\274\375/\241\275\243qW>)\356\367\2758|\265;\027%!>\372\221\021>\310M\357<PN>\276\tN\351\275\327\352i\2757\360\300\274\006\254\357<\215h\277\275\307\216%\276e\021\215\275\341\031\007>\266\364\361=\327wK\275\352\341$\276\0056F\275\377\261\311\275\320h\222<\305Gn\275\026\327d\275\034\313E>\306q\311\275Y\351\227=\372\355\004\2760?U>$\263\250\275\202\315\017\276\236\\\"\276\274\355\024>o\010\036\276\013U\331<\316\311\342\271\261\261\016>\243\340\\>\372:\001>\203\356Y\275J\332B\276\361\027k=_\250\263=%\237A\276\272\322_>\030\352\243\275\332A\350=\022Oo\276ae\316\275\006d\271\274\253\366\032\276\204\0254\275S\375\343=D\254D=\201A\r=\212[c=\2332\370\275\242\004K\274\267\241B>l@g>\203(2>p=\223\275fs:\276\202\027\275\275[\215\223<x\213\257<C\'L\271\220\370\002\276\333\227\312=\225\006H>\024\310w=\270\030\363\275>\003\'\276\tv,\276\267<0\275$\350\035\275\260\t\376=\337\367\021>)u\'\276\022#\306\275l\332\364<\006Q\223\275\0174\206=i\347\261=v\335}=\260\2438\274\350\242\246\274\277C;>\332\027\220=\n\0138\2762\"J\276O\021\204\275,q->\211\230\025\276\n\202\005<\t<\366\274\252\305Q>}\370[\276\351\271\324\274\340\214\017>\023@]<\252S\253=\263#\372\275-\264\303=\245\030j\276\3704:>>\273\016>\313I\323\2749\275\256=\360 \201\274\t\316D\276\203\025\344\275\361\211&\276\000\275\035\276J\336\247=5:\t\276Z\010\272=oT\006\276\032=\320=\266T\234\275B\222\204=1\216\243=lP\000\276\210\004\007>6\020\210=\347Gu>\027\362\031>a\302\300=\222\206\210>q\214\021>\333jL\276O\323\356\275;|\030\276\300\361N>\330G\324<\223L\266=\000\036\350<\305\242\211\275\226\000o\276\323I\261\275\301@\031\276y\242\340=\314\\(>\352\277o\275\"!\026>M\004\222>\0348\324=\013w\013>Mj\362=DU\\\275,1\t\275\032I\246=\260h\304<\261PE>\274>?>\365\317=>\023=\210>\344!3=\034\317Q>D\212\357=#\332\026=3_h\273h\374\024\276\3613f>\211\0205\276\317$C>cu\202=\321\225\001>\251\372\350=\200\221\372=R\261\324=\206\212<>\246=\352=\222\231\021\276\215\233,=\232\022\315=6\207\032\275\261K\025<&\271\224>)\214]\275\002\325\330\275\244\022e=\000W9;O\232k>\306\314(\276\215\232p\276Pk\244\274P\217W\276@r\314\274G\007\032>3\2315<7 \346=\rz\305\275\265))\276Tzu=E\255\340=\267\247%\276\022Qq\276\232\226\261\275p\320\307<`\317\202<\347\207Q\275\366pK\275\007\343\327\275\007\211\241\275D\250\276=\020lY>r\231l\275\"\221\315=AFg\276\r\227\355\275;\200E>\372\365\362\275\037\357+>}\207`>:KE>Wr\324\275\314t\264=V\365\211=\010\210m=\305\302*>R\0173\276\272z\276\274\333\222\\>bv\373=\214\223\\\276\202\rN=oLN\276\01303=C\236/\276\375?!=P&;\275\344n}\275\210\273\205\273\177\352\230=\267H8>\214S\223=\303d\335\275\354\252.\276>42\27608\200>d\031\227=\315\254\244\275q\025I\276J@T>D\340\003=1\024\341<\236\276o>2\264\230=1te>\014ON\275\321\300\305=\3535[>\\pD>\031\260\026\276\235u\212\275kD,\276@\337o\2734 \243\275.\2106\276\322|?\275\246\336\363=\"\310\243=Z\017\205=\000E\007\273\326|E\276`0\204\2742\350\312=\210Y\353;&\325\313\275\353\307M=n\356+<+\352\010\276\'Wv>\377\360G>p\'\352=\221\223\365=\324\337\\=gM7>}\031}\276\361J@\276X\223\252=\355\303=\276VM\312=3\303\300\274S\312\024>>\227\270=\372<7=\324\346\277;\222\241r=\237@M>\336\257\360=\364\303\222=\311|J=0J\270\275W\317\375\275^\200E>\023\222\021\276\266\213\340=\312\224O\275\275\305\253=V\020\325=5\236\t>\363\254g>W>\201>;b\372=G!\037\276\3150\277\275\027\201=>\353\232[\276\222\254!\276?\204\031=\332\211\024\276\232\375 \276\030z\226<\002]5\274\200\017\377\275\251\364H=\247p%>\254\302:=%\317\t\276l\372L=\342\354\316=D3\204>\013\2761\276\221\202\022\276\363f$>\275\232\004>\240\365*\2755\341\310\275C\357\r>)$->\256\303\371\275\017E\217=\311\210\363\274iK\214\275\'\025\333\273\267\314.\2754\324\300\275\3026\304\274\241\313G\275k\220\314\275&\016\357=\326\251\305\274Z\271h=|\353\020>\205\250\013>\003i\347\274%t\256<\340R\345\274\257\232\345=\r\\\357=\245\302\031\275\345\024\324=\316\337\247=\274\262\250\275T\267\017\275C\347\353<s\246P>\323\301M>\257\026o=\306\306\205=x3\177\274\222\225<\2769\177r\275\260\256\003<\324\030\207\274\356\316>=\004h\r>\374\204\222\273\302\035\305=\240[\310<\327h\216=B\024\241=n\271\276<\342\030C> \313M\274\241n/\275H\245w\275\3326\032\275!\214\023>\325\210\205\275\204H3>\007\335\337=\342\302\253=\233\373\275\275D\367\320=I5\023>\223~\235;\035\325W<2\226\206\275\253\002*>\031\277\n\276\025=V>\201\243#\2745\3649\276\355v%>\023\"\221=SN\270\275\357\317+>3\323`\276\277@\024\275\333(B\275\372\303\206\275v\321\005>\020\263P\275\216\335\316\275\322\033Z>\205\241\017\275\220hh\275\214kV>8o\263=\347k\353=\364\332?\275\324\322E\275m\211\035>\301\244D>\256gC=\265\022\250=\365;\310=\324\240\t\276_\204\014>lD2\275\337D\370=\332\357\026\276\276\202\">e\010\253\275\026\003m\275\023\261]\275\224\206v\275\014\350\013>\021\016\026\275\2526\017>UYe\276lH\221=w\024\353\274\362\313\'>\360\227,\274CK?>\244\321,>\270z.\276\007\205\r\276\332}\201\275\252\235/>\320=\033\276\3567b>\225a\270\274\005\020\237\275\263\2756\276\006d:\276x\257\304\274\336\021\324=\023\352\323=\307\267x\276/~\016>\036OK=\025F)>z\340\203\275\326K\203>w\371b\274\201+u>\273q\206;\246\230\311\273C\322\016\276J-\220=c4?\276A\036\036=r\307\243<i\"\202>\355\000\303\275\267v\206>\002\\\233\274\'\2477>1;\353=p+y>z\302\200\276yN\320=t\014\257\275\002`\001\276\360\245L>\035\022\032\2766\241\207>\204\016S=w\304d>\n\303\343=\306\302\277\273|\310\212\274_\351\312=\200\250\371:\234\030\335\275\302:r=3l{\276[\226\341=s3Z\276,\260(>\364\230\000\276\021)\255=I&\346=$\264\020\276?\260\003\276\320JI>1\236\005>\032\027\305=xc\317<9@\031>^\334\272=P8\024\275\334\0048\2769\n\037\276\326\032\350=\314\225!=\340\214%<\200\263a\274\360\003\r\275Z\206\245\275\000\314\237;uO\017>\360\226\330\274i\2401>\236\"\326=\000X\256\275m!6\276\035\351\n>\240\017\263;T\277^=\361\231A\276hXY\275\306\320\271\275\352\207\254=\020\364\010=\362\266\214\275\230C^\275\226>\007\276P\230\226\275L\246:=\362\005\316=X\"\332\275b|\226\275^q\344=\313\0374>`,\376\273I\006N>\314L\330\275\357\2526>\315;>> \200\360\275W\272\000>`+\010\276\320f_<X\354\256<]\260N>\005(]>:\250\255=\330\353J\276pe\256\274\252!0\276\213\270G\276?\014H>\314\225\263\275\260\255\237\2742\005\\\276\273vR>)\317\325\275\243F0>\222\343\244=\000*(\273\013U\266\275%i \276\206\241I\276\027\365\367=\022|T\276#\017\023>\303$%\276\3212\025<\350$\307\275\323a\031\276f\340U>\212\010\034\276\321\"\010\276\353\030\347\274\230S\t>\3407\004>Jf@\276\257\223\022\276\025{\370\275\217\\a>\376wi\275M\365V>3\330\363=C=\356=/\342\017>\023a\321\275.\263\231=|\273`>\204\317\022=+\335U>\023\214\207\275S\220?\276Ul_>\035\311f>{\320\010\276\333\005G\276\244\036\354\274m\025\305=\367\177W>z\034\213\275\345\030\r>\235\037C\275\257\013n>o\360\361=P`\337\275\211\\n=\2172\232=\022\314R\274\030\223\'\276\270-\335\2759\265K\276HLN>\n\023\344=f\242e>\322\302k>D\024c=@\364\031\276\355\024\307=\002\274\332<=\305\272=(v6>\267\035\016\2767o\235;\0006!<\334\332)\275\r\250!\276\300ab<\367\326p\276,\253y=\026\331\342\275%\356\305\275\037f\276=\177\347\245\270\311j\204>\231{\333<w\004->\313\2356>e\355\261=]\355\035>\\\267\203\276\306,\234=\304L\224=pA[\275/5d>\005\224\177=\230\'\362=dE\207\275\"\372\374=\023\374m\276\\s\206\276\244S\335<\355P\030>T\277\270\2750gN\275\314\260\337\275xhM\275~\204\215\275{\"\373=\202\243w\275J\033-\276\230Y\013>a\000\333<\271#N>\002A6\2765\370S\275T\005{<=\361\324=f\335\376=@\000\306\275p\000\231\275yZ\016\276\207#\327=Z\005\303=\005\2376\276\213\2242=\225\021\034>\355\367\371\275Z\301\201\276\350()\276\247V\033>\021\301[\276\223\367X\276\340\351l>1\334\017=\'a\353\275\004O\001>S\005\225=\377R4\276=\353m\275\310\237\303\273y\220S>\205\270b>\316\200\265\275\310/\251=\037\222\022>q\315\004>\361\252.=\226\033\211\276k7\366=\303\005\016\276x}\334<\377\262E=\337\325:\276\357aQ>\334\2002=\242\375\302<#N!>\227S\244=\243\333\021>\231E\344=\326l\336\275\272\217\005>\014\311q\275\234r\322\275\277r\210\275\256\205\335=\317[M\276\271\355V\276HZ/\276^\246\375=`4 \276$c\257=\213\346H>#\'\333<\366\226p\276\261\2423>K\341\200>4\224\202\275\325c\225=\005\251\320=\202\313F>\204=\235<\277\271\023>\374\253\246\275\374X\271\274\336{\272=\230\213\347\275\264N?>Y\3760\276\027\375k\276r\341*>]q\220\275\325\262\334\275O%O>x\016\224=\350\201\262\275\336\361^=s\220P>r\222>=\344\246=>\307\245\003=\300\370a;\004<u\2757i\272\274\354!\346\275\336\351\021=\276\267\314\275\312XP>\344\360\217\275\000(\307\275\214\027[\276\024Uc>F\2331=\2154<\276\342\217L>\373G\234=\240W\352<\354\350\246=\353\177\021>`(\334\275|^4=\202\376Y=h\033#\274\341\206|=\024o\001\275\310#j\275X\366\356=%\250\213\276\0265R>F\205r\274\020\275+\276#\202\340\275\036\344\332:yy\004>\341_#>\313O\\=\035=\224=M\026:\274\346m\251\274/$\016\276\300\362\313=\n\2356\276\333\334\312\275\324\030\">\300\250\237\275\345\n\004=\372\223\267=f\230\273\273\3172q\275.\324->\017\036~>\3632\304=2q\375=\335\300\221\275v\206\034\276\026*F\276\313\347\200<ml-\276?\220Q>\311\201t=\370\\\003=\2175\003\276x\214?\276W\362{\2759\3431\276\220P\335\274\367\317(>\315 \306=\356\217\020\2765\212J\275\2271\311\275ZK\203>\'\271!>\266\271W>\315\226\256\274KS\352=\370Fl\275(\032\016\276\312\204\270\275\312,\034>#\364\021\275^D[=\254\245\207\275]\266\364\275\017[\025>\330\235#=u\346u>G\325\260<\351A\033\276\305\347h>Dh\210\273\203y\324\274\353\276\272=|&!=\261&O>\224Q&=\177\372\n\275\006I\233=v\266\253<\200p\024=p\245\031=\\\364\230\275\361\356H>\355R\352\275\237\324\263\275\356\357\031\276P\0016\275\350C\305<\321\022\325=\376\001\276=C#\001\2766\312\026>>2\214=\241\227\352=\256\360;\276\022\245\220\275\257z\010\275l9\344\275\016\256\340=\307Iz\275:\243\037\276`\267w\274_w1\276ZCq>\214\255\267=\251U\031>\367\277B>S\260\265\275O\361\021>\257vD>0\216T>-{\373=\273a>\276/#\024=\211y4\276k\204\214\275@\354#\273D[\'>\325=A>\373pN\275\240\240-=\010-6\275\306\323\210\275\360\003\022\276&\220\035>^\005\020\275\002[\321=\263n\022\274\271P9>\177\017c>\363\336V=Q\367\024=\246\374\027\276)\034p=y\013Z>\311\0075>\006\334D\276\006f\014\276d\321\360=\354\272\336\275]z\346\275\331\221\300\275\326O\000>\324\332\234\275\366:\242<\240\213y>D|\033>Nn\030>\010?\207\274\302\347\027\276\215(I<\t}\336\275\270\005\224\274\320\317\371\275(Ft<\224\013\021\275\034\034\002>28\223=N\340\030>\300e\350\274\335\212\026>q\275\t>\315\226\315\275 \221D>$/L=\250Q\244\274JBB\276\215\034\003;\305\262*>:\003\244\275\302\362\362=\003\330Q\276LgG<\326\006\241\275\353\372\317\275:\236\212\275\355\206B>?\310;>\3429\304=/\202S\276m1/\276\303M\245\274kb\235\275\t\244\220\275\274u\301\274p;g<\024\255\025\276\204d\177\275\331\026\003>U\305\220=\235\006\033>HRg\275\324\0262=Z\237\362<\346\377\260\275\241x\032>\376{=\276V\205 >\253/\033=\253\2669\276?\224\341\273\026\204Z\276v\252\245=\022[\270=\246&\305\275X4\323<!\346\001>\231 g>\254nT>\340\205\305;\026\375\317=\024\013\331\275r\355\017\276\204\035\006\275\267\200\024>\220AR\276C\211\320<\213\232\224\275\335\000*>\010\257\345:-\031S>\210\002\036\276a\267\017<\260P\233\275R\263\016\276\254\3307=ty3=\'b@>pA\202<\340\007\345\274\333\320\005=g\300|\275\024\212\031\276I\210\322<\263\352\311\275$\323R\275\257\003A>&\244\216=\266W}\275\234\036\261<qgI>h\006@\276\262\310\255\275qj\343\275\230\352\025\2762 \364=YJz\274d\302l>\266\0210\276K\204<\276\215\244\305\274\316\316\234=<8\211=\177\207\235=\274\317\020\276\n\212\206\275\352\177=\276I\212\227\275r\217\027>\321\1771>\362\306\321=kgT\275Q\326\340\275\201_N>^u\021\274In$\276T?9\276#A\275=,\251\304\275\t\322\001\276s\265\255\273\255ih\274\204v\323\275\202\376\026\276$\313\304\275\275!D\276\323l\306\275\314UF\276\265\201\252\275\023d/\276\362hB>\274W\317\274\300^?=\017\374\314\275\235\327O\275|\004\344\275T\256\030=\021\303\030>\370\3147\276f\345!\276\363\3070\276Z\222\327\275\206\336\"\276\270\3432\276\327wL>=\362\216=\357\362t\275\244\220$>\rRO;\031yt\276\t\240l\276v\342\023\276\246\363=\276\030R\003\276\034\2147=tuJ\275\204\375\030=O_\323\275\200\\5\276\300o\031={\210\324=x\"\335\275U\346\337\275\322\020B\276+\205!\276\t\231D=\006\r\207\275\305\036\307<\213hO>\347\315L>6\300\213\275\rE\201>\024\301b=\211 \004>\334b\361\274\316\204V>k\036\036\276b\3147\276@\257\230\273a\303.\276\350\322\335<\004\3737>dI\304\274@\262\375;q\"#>L\253y\275\020\341+>\336\315\303=\222\327+>\2038\002;M\303\306=\360V\005\275\2726\272\274\003\251\263=\305\3737\276%\3239>e\r0\276:\327\023\276\347\2438\275,i\271=\265\365M>\335\242\271=c\000\326\275\301\037\225=Yt6\275\304s\255=]\210<>:\037\243\275U)\"\276\353O9\276\234Sj=F2+>\201\251\300\275\273>\231=\010\321\245=X+\373\274\262[\217=\300`D\273\031\316\360\275\014@p=\2009-\274\313\005\016>\214x\021=\224\002\025\276\2273\010\276\373H[>J\224\033\276\342\364\357=\237\307\031>\367\2663>\361\256\027>jaJ\276X\177z\275\017\303\021>(\351\262<\316\r\367=\215\213@>I\2737><};\275[\374\034\276j\007\352=OOW\276\252\271\363=\\z==\r\240#\276\177\342W>\252\312\365=\312\300\215\275\265\236X>\3430D\276m\272\371\275x\243N\276\017\263:>\350\345H\276\270\261\353<j`\317=X\223=\276\210\230\213\274\227Y\033\276\221\311\\>\256\241\246\275T\244E\276b\261\311=\215{9\276\342\025\313=\010%\342<6\033\033\276 \251\346\273Y\257\306\275\334s\002\276\270+\031\276\376\022\241=\310\240\033\276~\354\262\275a%,\276x\3358\275\230c\362\274z\231\235=Z\372\357\275\006\341\334=Q\002\005>r|S\276\246\351\210=\362K\240\275]N!\276\223iA\276)\241?>\017\350;\276X+c\276\360P\210>\231|\272\275\210\203M\2766\202\212=m\'\226=F\365Z>\223\320w\276\270\327W\275@\321\305\275d\023E\275\177/6>\205\241\\=\332,\036\276\2327\365\2748\304O=\310\326+>\001\204M\276\242vX>l\307\221=\n\200/\276\201\325\243\275D,f>X\316\272<\276\014\016>\000\212\030=\330E\324<\034\372\225<c\333#>\010\233%>\370<\305=\226\251\254=\222\360\367\275\275\344\251\275\213Q\\\2766b\227\274\210\307\343\274\000_\027\276\rN\267\275Z\371q=\361g:>\037\374\241\275\325a*>\325\2208>j%C\276\305t\214=\021\353\257\275 4\224\274\220\3473>@(Q=\365\332\t=\324\207K\276\377\341H\2765g9\276\260J+=\323\351\\\276\206\255Z\276\202~h>T\215\034=\324\362\204<H\355F\276\217\261i=$}\r\275=\305{<Nr\225\273\030\222\024>O5\243\275p\016z\275>\020\222=\255u\223\274J$\354\274#hI>\022v\232=\370\304d\2765\314(>BiO=\231D\230=d\010\262\275\033\027\355\275\211\226q>@Bs\276l\267\236\275\205\262.\276\336\333\003\276\303\243\257=~.y\275\333\021\307\274\360 K\274\004\031\206=\364\337\007=\032\034F>\232\322\024\276k\251\334\275\252\307Z=\365}U\275>r/\276\322r\213\274`\312\026\276\236\307\221=\242b\314\275w\316\350<\347Z\020>T\345\207\276\234\353\014=\310R\233\274\320\002\010\275\027E\206\274T\212\">\273\320f=\320\037\024\276\007<\227=*\241\326=\324\257+=\366\343\221=\200\3256=\tfj\274<\017\004>\023\366P\274~\230\213=\253\2705>\374UH\276\270>4>\000\242\\\276/\270y=\311\337M>\025\274\020>\020\301\n\275i%=>\253B_\276\360\235\026>#\361,\276\262\376.\276\261\215\216=\250\316A<:\024y<&D\212=\014\367\366\275\371\234V\276V\315\r\276O\200G=}C\017>6\357\032\276\310\245\023\275\320\267\000\276,\2565>\030m\332=\3479\002\275\'2\016>?\204\302\275x\304\037\275\347j\320\275\210g\307<\0208\333=\255\227\256\275\357\337\323=s\270\333=\025\177\025=\010\341\331=\237C\213>\334\341r\275E[\004>\017z\006\276\343\032\272=\200\373\233\275\336i5\2734\026\353=}{\036=b\334S>r\241\222=\376\223\343\275>FB>\354\004\031\274\0039\355=\261\377\223=.\224e\2730\300\204\275+\227\016\276\'ll>7c\235\275YZ\315\275\271\r\"=y\321.>\367\004\232=\300\202~<\206\342\231\275&r`>\231\352\337\275\353\020\230=N\206\247\275=\036\024\276k\367M>\377\237*>\253\240\227=\216(X\276\242\320\300=8\344\000=\006A\330\275\2450\240\275\024\371)\2766\273N\276\265\207\t>E\177+\275\304\261\236\275Kk\\>\345\034\267\275\030\206\322=\030\274=>\366\020\321\275\377<\374\275e\r\036>\200<d<\341\034Y\275L\265P=\237\327\323\275\267\362\032=(\027;\275M\321\246\275\3060V\276HKg=\n\030\205>g\264K\276:\300\t<\301\366\257\275\342\353\223\275\'7\371\275\255\264-\276\335\316\223\275\257J\324\273\2772\305=\334\014_\276:\371\346<\010\022\023=\374\360,>\365\221\216>\251\027G>\316-g\275B\225 \276\230!\303\274\241/\317=\202\241\322=R\300\025\276]\215?>R}\001>7\205!>P\000,\275\032|\025=\016\326=>Z\211\275=H\013<\276=\371\236=X\334r\275B\252\301=n\346\200=e\251\231>\270)L\275H\371\014\275\007\n\261\273\034\201|:\253u\352\275\0147\"\275\242\363\034>o\276\376<j\202\243\2755\220s>\323\325Q>\230\360\203\2750\342\035\276\227\257\013\276\273\304\371\275fR\214>\001\236\220>\244b\006=\265GC\276\311K#>\377\236\357;O\203\222>\333j7\276\327\032>\274\035\005\207\275\234pF\275\303\013\257;_\315\002\276\036\332\t>h\216{\274\333\024\302=\275\020v>\375\272\275=8\331\373<fs#>\312\321B>\310\371\002>\205\3710>\2123\371=GB\'>\247\323@>\357\323 >\336>\252<\377\322Z\275\361s)\275\332\356\247=\262g~>\034;-\275\361\252\014\276\362\370\330\275]+P\276\264\205\315=EHX\276\213\347\341<\275\202:>\204$\246\275\257v\026\275\002=\306=\3128\360\275\367tB>\267\246;>\344\032\241>\374\272&\275i\262*>\276I\"\276\370\277L>\270\204x\2746\227\255\275x2a>\037\243<>ai2>\220FV\276\260<\360\274\351\007~<\267\030>>&_\000\276\020jW\275\213\377z\274S\354\">\2079g>\367\311i>R\354\005>\000\310\030>\241\344\017>\306C\177\276A\004I>\021~\355\275\372\230\255=\337\2214\27652U>\256\200:\276Y\242\007=\314gG\276o\000%>o\332#<p\244\265=\204\373R\275T\353\221\275\237\007>>\323\305(>\023{\331;\003\341Z\275\030k\214\275i\256\202\275o\326#\276\013,9\2753\375R\276A\333\r>U\210\025>(y\201\274\264A\200\2751S\315=\324\352\022>\020(\355<J\334\334=\333\315\254>o\214^\275?*C>o\247}>W1\232>\355\331\253\275j\035\243=\33176\276\023\234\330<\252l\025\276\355M\352<:\322&\276\307\372\337=8\337\320<dB\025>\322\274O>g\234\225=\224\233F=*\210\254\275pJL\274\222.\277=\230\004F>~\205\365\275\221@U>R\223\004\276\"\017\032\276a\r+\276u\222\353\275\016\213[=J\230\345\275\'+H=z\353\306=gH+=\352\262\343<\361\276\355\275\2179\n\276W\355o>y\2752<\014X \276\020\313\005\275\234dW\275\330\254\031\276\360\013\315= +\205\275\237+\264=\217\212\201=@\337\364\274\313*\021\276\230\3550\276\326\"\210=\306\353\210=c\221\301\274.\t\360\275\315\216k>\356\2761\276Qk\023>\354R!>\371\266\017\275\326\232\357<2\313\371\274\317\201\001\275\333\346f>l\260\000=\357\r\317\275\273R\025\275\032!d\274\037\234\315\273\216\366\312=\272\377\021>\343I\024\276@\251\230\274H\177&\275\302\007`>\257\\C\276^\274{=\306\224\226=P+B\275s\235%>\031\265\270\275D\003\206=\240s\230<\207\025\r>\200\331\372\272\014\302\005\276\305\311{\274\3066\324\275\235\327\231> \261\267\275\"\2433\276\"\300\271=\241?u\275\324\255,\276\222=\233\273d?\032<\305 \225>\241\212\\>\007`]>=^\017>Y\030\213>\264\316R\275\341\210G\276\265\256\255\274`\206\231;\310\332\017=\203\244\030>\004\212[\275r\344\035\276Z:|\276\247\253\327=\360\261c=\317=2\276CD\266<812\276\311\335o>\342z\361\275\214\316\341\275%9\261=\340\330\316=\341{x=\202}\202\274\226\322\240>%\335*=\311\322\3478\367\337|=\260\307w<\353\2759\276\277\216\366\275\321R\'>u\024\202>\315\357\303\274}m\036=@\035|>\n\201\300=2*\344=\307\225?\276\326}!>\365`\003\275^.\311\275\231i\372\275\000\375Q\274\375\274E>L\033Z\276\236\177D\276\275\351\201\276\346\272y\275!\2759>.e\264=\316\322~=\302\373-\275\260c@\276PB\353\2756r\205=\226O\007=\332e\334\275_\336g\276\013\2561\276\245\337^>\242\023\310=J\031\215\274\342\202\207=\0009\016\276\245?%=\232\236R\275\266N\030\276O\271M\273\347\264\017\275\266_\330=\227P\007>\360\341B\276\322i\357<\215}\272\274\360ti\276\262\350\027;\354\035{\275\224\004;\276\210\342N>^\301\310\274D\372\026>ag\r\276\342\2309>\014\357\034\276\355\254\014\276\355u9>\'\017\n=.\3662>o\313\314=O\324\206\276\026^\000>\306P\026\276H-\025\276\250\255\320\274H\265$>\226.5>\242w\023\276\206\372K>/\010b>\035=\323<\320\035\214=|\323\030\276\340\206\261;~m\203\275Z\341\252\275S\365\316\275\1770\030>\372\304\367=\"y\370=\300\275\254<\310\272P\276\374\n6=z\r\364=\340`\340<xr\251<\254\231\"\276\264Ow\2752.\352= \363P<$\014h=\3017\005>\210\362\007=\\\246C\275\002\262\306=\275\002;>\312F\267=\351B\363\275h$f\275j\220)\276<\335\037\276@eG;\262p\303\2752f\214\275\016j\350\275\334\207{\275(cx\275\235W\\>UL\036>#\t+>\266\357\237=\222\255\371\2753\233\000>\200\272O<\362@\246=\241J\002>X\262\314<*\200N\276u\005H>N/\321=\304W\t\275\240\214\371<\206\364\237=D\206\035=\273\351\346\275\000\321\007:O\301F>\177{*>\255=\030>\252\213\310=\263\325?>\220\374\027\274k\251B>\023\327\t>TFv=\314*D\276\274\235\024\275\320\004R\275\257w\034\276S\334E><\n\215>\377\304@>\r&\006>\340o\"\276J[\245=\277\027\260=\t\251\264=\n\235\373;k\275H>N\357\354=\3439\330\275)5\326< \332\200>\262\205\017\276s\266:>\0276R>J]\364\275P\250a>;\032\033>i?\214=Nr{>\266\272y\276I(\253=\265\363\211=\275\302Q<9\347\221\275\2411\013>\003j\026\276\210\0065\275\364\373 \276\351\260\005\275\220\3319\276\210K\007>N\247\260\274fvC<\3005\020=\002p*\276\375ao>\232\251\035\275F\260\366\2740\307\031>sO?\275Oah>f\302s\276\217K\005>\373\343\347\274\370\257\325\275\326\035\301=\027\241C\276\037\244y\275#\314[>\372\2270>\204\202Z=\367\370G>dhH>\032[\314\275\2662\005\274US\375\274G\304g>\305\342M\276\306\370\375=\332\231?\276\255\3317=\007\211\010\276cdR\276`B\020\274\2200\013\276\232)\210=\230\013\036\275\017\216\333\275\214K\t>J\332\034\276c\274R>EA\022>\330\235\276\275\253\315\r\276\366\363\017<\265\nU\276\r\227A\276<\301x=\035\250\302\275l\013\007>\334\226\357=\231G\306=v$$\276:\326\273\275\354a\343=NQd>|\303\206\276\204Q\'\276\346\315>=-.\021>\224\031U\276\332\017$=\334\226\334<\374\263\"<\237\010\275\275<Y.\276\021l(>\030K\257=\247\337H>\247\000\350=_ @\276\342s\033>\000FX>\355\272G\276\2122L>$\014=>\227\024\243=\261p^>\210E,>K!\035>PE&\276\264xK\276/\211\250=&\211O\274\334\251+\275\3209W\275\365t\245<\320dN>\024iR>\337\000\\\276\221\216C>\334(\306\275/\334\004>\360F\002\276\234\315A\273^n\314=\314l\311=\337X\336\275\202\272\364\275\300o\035\276b/\344\274\372\021\004>\276A\340=/\300\037>,\244r=nO\003>rAq\274m\201\020\276r\351t=\004\001M\276.\241\022\276t\"Z\276\201\227,>5\304\311=X\320<>\354.W>\220\364\356\275\323G\374\273,\352V\276\252\017\033=+\362^>\261\2648=\027\206\233=\274\360\211\276\n\354\304=\"\342a\274\032\331\037\276}\t\037>w\323\013>\371\"\177\276\005\277\201\276t\243\003\276\240\312@\275;\037+>\234\246%\275[\2776\275nV\210\275\2535\247=\216\315\220\275\026e\210>4\245\333\267\255\330\213>\032\215->\233\373E\275\274U\201\276h\036+\276W\0107\276\036my>\220\341\n<\333\322J>,?&>\273\235H>\304\273a>>r\276=\016m\320=9\177\016\276z7\226=x+U\276}\027\373\275Fp\265\275\212R\321\275\221y+>\000\316T<.Q@\276=R\330\2755j\033\276\3432X>\000\226\261\271|\247)=\210\372\245\275k\311G>\365N\001>@\030\033<\276\236\207\275\232\227\264=N\304\227=V~\255=V(0\276\305a\005>Y\204D\276\307\007Q>9\236#>\272\270\341=\311h\023>\020R\326<\274\021]\275\260\310$\275\320\277\n<r\226#\276\033\031&>\204jr\275\274\247D\275\241\325$>\210\272\257\275\221,\027>\374\375]= \032\330;\036rC\276\300g\204\275#\203\310\275z~\217=\247\226H>\217|\016>\332\360\227\275T\267\"\275\200`]\274\317UX>\326\255\r\276[\024\335\275\257\255\032>\025g\033>\362\351B\2766\022\033\276\240\346+\274\255\364\026>83\320<\036\202\263=\372\320\376=\310\007\220<\232\260\342=\177\217S>@\303\314;\265\232\023\2766p\253=*\224\326:\202,6\276\217^*>\240\234\370\273r\224\266=\363};=\006\303-\274\336\014\032>\340\234\200<\354\3120\275\017%\032>\313\010{\275|4#=/*\330\275\024\310\217\275x\201\206\275DW\317<\257\365\023>\2769U\276\350J2\276\372G\322=\271d\031\276\217\217\373<\246~\004>\277\245|>\027%\240=\024\034\033\276[H[\276\340\021\204\275\207\034\270\275\336\373\342=G\003\027>\207h\340<\215\211\036=\233\211K\276\001T\023\276Y\212\033>\256\312E\276\345\322U\276\333\r\033>\230V9\276E\316\375<q^]=2\326\006>\035Q\005>b\234I>Z\002\236\275(~\020\275\030\017K\276\221\274\202=;L\351=(\206!\276\244\206M\276\024\353f=\003\2646>{\374\215\273\277\237r>\317iD>\336\261\233=\312<\336\275@j\263\275J\310\276=#\0256>Ru\365=\024*+=s{\004\276\371\326*\2768\0018\276\'\276\323\275\320m:\274\360\3653\274\257\2772>\25790>x\207\201\274\274y9=I\324\033>_\235#>2\325\325=\270\016\t\276\302j\252\275\246.\227\275)_\320\275!\203\010>j\364F\276\224S\210\275[l<\276\214\252\033=\362\322J\276\310$\233<r<\326=\251\025T>>\010\252=\010\305 \276\242R\265\275\004\\m\275\374\264!\275\314\314\033\276\370\244\276\274\300\237\215\275Z\027\307\275\276\016[\276\240\263\204;\016N\245=\247\361\367\275\032T\375=\017\2527>\335\312Q>*\027\247=\320\306{<\360p)\2766v\275=\232\210J\276\357\242T\276~\317\226=\250\216\004=\332\3321\276\320\342\017\275\000\240$:\274\336.=\230^\232<\036f\231=@m\027<\272,\034\276/\321=>\226\303T\276\212O\246=K\277o:B!\373\275,\245\316\275 \027\344\274\033\340\244\275\300\217[;<Q9>\010\351d\276\277(\021\275D8\302=\000H\2148VK =wK\241<\324M`\276\337G\243\275\010\366\014\275\314\231\177=\026\200\272\275\346b4=\2244i>}\346\\\276E\200\332\274\354 \022\276=$\">\232\272\025\275\320&\021>=\205\002\276\235\363\002>\013\356\203>\343\372\031\276\213U\020>O\356U>\311\310\210\274j\333\271\275I\022\020>\300\305\020=T\361\'=x\347i>\242\312\326\275\211\233\004\276lkq=_hG=\320\007\342=f\300\330\274\\\201)\276:\033\000>\020G\326\275\245\370\177>\203X\352=\306\342\016\276\2301\036\274w\245H>m\342h\276ASp>\202.\t\276\023z^\276vT\343\275\243\261\004>zpe=f\35279.v2>,\025\213\275y\232/\276\356\020\230=h\t\311\274\000\221\206\275\3076@\276\0347\023=L\2067=\232\035\333\275\000V\216;\000\275\303\274\001c,>V\017\027\276v\211\352=^\327\226\275\277s%>5_3>\255;\007\276\001\025\n>\227\257\032>t\351A\276\247\361/>\262\357\307=\270|y\275 \355?\276\020|\313<\330\366\221\274\2778\030>\014T\342\275\314\032S\275\300\021\017<\304\371)=\231\0219>\254\276q=\022\337\276=\034%\177=\014a\020\275\035\361L>H\036K\275$l\020\276~\233\305=\366\020\336=\312\262\346\275#\227E>\360oS\275z\202P\276\212\247\363=2Z\022\276\200\355\254\273,\024f\275\034F9=\206\230Q\276\371\214\341\275\022`\003\276\234%\031={8W\276\326aC\276@d2\276E37>B\254\271=\252\354\336\275\026)\231\275\266*\272=\232\261\277=\037r >\\\223\251\275\000\344\014\271w(+\276\177\203[\276\257\340P\276\320\220 \274\004bP\276\252\037\255\275ZIC>\327{+\276\210\235\215>\304\355\221\275T\321\333\275\241\376\n\276T\362h>\366\212Z\274\312\374\014=.\314\355=y\312\260\273@\267\010\276\245}W>^Sd\275\327\374\030>\361.W>Ku?\276\313\332\'\275S\374\341;_\022p>4\2751\275eF\005\276L\216\201>4\310L>6\322\277\275\327\322\t>\205$p>W(\'\276\350\235\352<^8/>Y\306\336\274KT6>\220\032z<\"\204\222\275\365\256:\275\321\001s\276We\373=\005*F>\212P\021\276\304\376\013\276\177\317$\274G/\020=2\321\324\274SF0>\374\374<>\234l\206<\273\256Q\276\352\207,=q\253Q\276A\001\251\275\270\2725<\304R\367=1\325\233<\350\206\204\275\247\266\215=s\273\002\2754\357\007\276\256\200\370=\367s4\276)_9>g\351[\276v\211\253=\324\263\340=\303\006\000>\230\235Z=0_\377=\307\001\016>\234\204\202\275\004\2651\275Z\372C\276\355\361F>\351Y\030>\371\370$>&\322\231\2752]\357\275%S\037\276\306\001\354=Z\247\355\275\000\'\330\274\027WL>D\031|=\322E\360\272\250\034\265\271B\270`\273\207b;\276\307!\376\275\374T\023>)~\000>\ne\213=P6O>o\2328>$\235\t\276\277\306\333\2752\327=\276\217\217U>E\364\357\275\322-\031\276\324\"\177\275\362B\215=\333|\321<\351\002S\276\030X\354\274X\273^>gxn\275\021yB>\245\250\225\275\210\357\361\275E\261&>\363\3224>\337-+>\366\343\322=\205B1>@z@<\272z\035\276\300\201S\273\223$X>1IB>\216\301\353=\305\327\377\275\020\n\001\276\0353C>^F^\276$\232\272\275\302\374\244=\004 \207>L\245\215\275\270\025\201>9P/\276ly\026\276\002#B=\0362\276=\202P\201\275\031m\030>\025kK\276\321p\004\276wu(\276#i\027>\244\254]\276\225|\013>\334[v\275\024\017i\275\260\264\034\276\031n\037\275\270e!=\305\016\214>\350\221l<\022\325g>\344]T>4,`>U\207P<\020\340|=mXZ>\022(\273\275\350\365t\275}\265\227\275\330EU>\215\217\306\275\257|\206\275\243i\025\274\005\262\026\275\342\346\214=\265\333\224\2756\303%\275\230\231J=\367\335@\275Bvk\275\313\235\030\275\344\324L>\327T\362\275{\203!>\ta8=^\356\022\276\302KR>\241\027Q>\312\321d>\020\321\305\275\332\317$\276\325\371-\275@\3462=\203\t_>f\3058\275B\354\251=\205\367\374=\331r\222\275\334\341U\276\351-2>NCY>\315X)>\265\220\275\275\246\355\217=\202\310\303<\270I\226<\376u;>b\212\252<\263,\336=\205\221\022>\n)\372=\245J]>:\300\237=\372\356\340<s\210\246\274\341\232B>\2766\255=\016/\025\276$\355c\276\231\004J>~\247F=naM>\325\307\231\274\006?\257\274\244\033\007>\334X\206=\031\345j\275:\325\260\275g\206\003>\001[,>\260_\271<]\257\214>\246\030r=@\373\'\276@\022@>\tL\260\275!\247\024>Ci\037>\006\220X\276\225\356\314=(G\013\276\262\262\252\274\257m\275\275\371->=P\213K>\306\363\n>\214\324\252;\202\326d>E\333\267=\t\222\034>\275\266\326=\250eV\275\333Nj\276\342\n\345=k\033\\>q\257\031>b\037\270<\3757\026\276\032\\g>M\2751\276\345\004X\276\256a\320=O\010U>\001j\344=\220\332\240\275\014kl\275\252\332>>\370\204\207<\372\362\367\275\340\036\222\274\271\344-<`\3650<K\254(>6a\236=\010\177\341\275<<\n\275\3524\351=\330\334\021\275^\275T= \3549\274\200iC\274\026\367\373=\032l\227=1\220\024>\210i\311\274\245\266\301\275\316]5\275\3311[<\"6\205\275\200\311\366\275\216\376\330=\026~\324\275\274\272[=.\215\302=\252v)\276\235:\314=\200\227\231\272\275\302I>\000)1;L\331\320\275\310\021\377<\234\270\230\275O[\036>\017\271\373\274\314\304,\276u\231\207=\206;\036\276y\364Y\276\332\240\235=n\363\203=\320\275\374<j\261\221\275P\322(\276\265\343(<\020\257K>\300#@\273.\000)>\334\273}=\200\"D\273\372\373@\276\250+\352\275Y%8>BJ\226=\271\327\315\275\262\021\260\275,\303a\275\3707\312<`Q\332;\313\266+\276\207}\001>\315\2026\276\\yp=\242\375\212=`\032v\275\211\235#\275\016\2714\276\272\266D\276\001\201B>dy\021\276\210\t\355<\201H\216\275H\323\243=f\276\001>VW\243=\334\342\031\276E\304\006>5\333->\256c\017>7\242\300=*\206\257=\304-\030>^\364\032>\266\003G<\345[\032\276\231\241\364\275\035\302\026>*\245\330=&\343\302=-\350\\>\336e\202\274\356\345\320=\335\347-\276$p\357\275\023\377!>b\031\204=\030\226\021>\363\225F\276\337\211\331\275g\017W>\022\034*>\251\021/>\312;\375=\336\322a>\035\246\035\276\010.?\276\315A\033>\376y\263\275.\201S\276\240\004\\\276\332\240\302=u\244\234=\\\2344\275\220\274\247<\202\272\005>#\323R>\375F\365=\376o\205\275\\\257O=\264\n\262\275\247\"\312\274\264\254\017=\201\010\202\275\265\346?\276\224\312Y\276\234\261\202\276{\231\320\275\000\001\277\274\355k\033>$\263.\276\371\3352>w*)>\312=\"\276\355\344\">\224\342/=\247Ie>\247\244;\275\274\260\211\276$i]\275\352\235\013\275\212o\225=&\345`>\000\313W>\347\r\332\275\375$%=j\031\324\274\\\267\254\274\345\264 \275\270&\210>\262;[<s\334\030>\362\365]>\311[^>\001WL\276\245\236\360=L\211\320\274\316\362U>\242\305:\276d\356\334=\240\214_\276\253\\\001>\037\213>>U\224\302\274\257\255^>X\207\203=a\242\226\274N@\347=\333\366\235\274\307(\237\275\316\351\n>fv\373<.\357\327<Eh\376=\272\226\002\276\212\232\'>%\212\r>\210\336\212\276\206-$\276\242\225,>e\217\343\275IIH\275\255\025\300\275\005\204[\276E\250{\276U\236\232<\275\225T>"
      }
    }
  }
}
node {
  name: "dense_2/bias"
  op: "Const"
  attr {
    key: "dtype"
    value {
      type: DT_FLOAT
    }
  }
  attr {
    key: "value"
    value {
      tensor {
        dtype: DT_FLOAT
        tensor_shape {
          dim {
            size: 64
          }
        }
        tensor_content: "O&\257\273\275uW=\000\000\000\000\030\327\205=\000\000\000\000\252\324\227=\000\000\000\000\'v\237<\226\373\242\274\254\364\304\274\007\337\336<\000\000\000\000\333\242\247\2734\276\n<\231|\350\2723\252U=\000\000\000\000\223\2756\274\000\000\000\000f\346\225<8\005\177\273\267\364:;\325\014U=\202\266\222=C\253\210<e\253+=JE\206;O\214\213=\366i6\2744/?<U\004\236;\000\000\000\000p=T\274e\213d<P\3025\274\340E\337<\021\336\321\273?\n;=,\332\221=\000\000\000\000O\n?=m\210\324;\346\257!=\0306o;\177\264\027\274\351\215\245<8\317G<\241\200\217<A\026\346;;\336\000=c\210\014\274N\203\225\274\304\276]=<g\271\273\327g\250<\000\000\000\000\276\2330\2740R\263=\264\362\216;u\"\302<\243*?=\r2k=k\n\230\274\000\000\000\000"
      }
    }
  }
}
node {
  name: "dense_3/kernel"
  op: "Const"
  attr {
    key: "dtype"
    value {
      type: DT_FLOAT
    }
  }
  attr {
    key: "value"
    value {
      tensor {
        dtype: DT_FLOAT
        tensor_shape {
          dim {
            size: 64
          }
          dim {
            size: 64
          }
        }
